node {
  name: "MobilenetV2/Shape"
  op: "Const"
  attr {
    key: "dtype"
    value {
      type: DT_INT32
    }
  }
  attr {
    key: "value"
    value {
      tensor {
        dtype: DT_INT32
        tensor_shape {
          dim {
            size: 4
          }
        }
        tensor_content: "\001\000\000\000\000\002\000\000\000\002\000\000\002\000\000\000"
      }
    }
  }
}
node {
  name: "MobilenetV2/Logits/Conv2d_1c_1x1/biases"
  op: "Const"
  attr {
    key: "dtype"
    value {
      type: DT_FLOAT
    }
  }
  attr {
    key: "value"
    value {
      tensor {
        dtype: DT_FLOAT
        tensor_shape {
          dim {
            size: 2
          }
        }
        tensor_content: "\0300\257<A/\257\274"
      }
    }
  }
}
node {
  name: "MobilenetV2/Logits/Conv2d_1c_1x1/weights"
  op: "Const"
  attr {
    key: "dtype"
    value {
      type: DT_FLOAT
    }
  }
  attr {
    key: "value"
    value {
      tensor {
        dtype: DT_FLOAT
        tensor_shape {
          dim {
            size: 1
          }
          dim {
            size: 1
          }
          dim {
            size: 2
          }
          dim {
            size: 2
          }
        }
        tensor_content: "\244+\301?\374D\246\277\rks\277\305\220]?"
      }
    }
  }
}
node {
  name: "MobilenetV2/Decoder/concat_4/axis"
  op: "Const"
  attr {
    key: "dtype"
    value {
      type: DT_INT32
    }
  }
  attr {
    key: "value"
    value {
      tensor {
        dtype: DT_INT32
        tensor_shape {
        }
        int_val: 3
      }
    }
  }
}
node {
  name: "MobilenetV2/Decoder/ResizeBilinear_4/size"
  op: "Const"
  attr {
    key: "dtype"
    value {
      type: DT_INT32
    }
  }
  attr {
    key: "value"
    value {
      tensor {
        dtype: DT_INT32
        tensor_shape {
          dim {
            size: 2
          }
        }
        tensor_content: "\000\002\000\000\000\002\000\000"
      }
    }
  }
}
node {
  name: "MobilenetV2/Decoder/concat_3/axis"
  op: "Const"
  attr {
    key: "dtype"
    value {
      type: DT_INT32
    }
  }
  attr {
    key: "value"
    value {
      tensor {
        dtype: DT_INT32
        tensor_shape {
        }
        int_val: 3
      }
    }
  }
}
node {
  name: "MobilenetV2/Decoder/ResizeBilinear_3/size"
  op: "Const"
  attr {
    key: "dtype"
    value {
      type: DT_INT32
    }
  }
  attr {
    key: "value"
    value {
      tensor {
        dtype: DT_INT32
        tensor_shape {
          dim {
            size: 2
          }
        }
        tensor_content: "\000\001\000\000\000\001\000\000"
      }
    }
  }
}
node {
  name: "MobilenetV2/Decoder/concat_2/axis"
  op: "Const"
  attr {
    key: "dtype"
    value {
      type: DT_INT32
    }
  }
  attr {
    key: "value"
    value {
      tensor {
        dtype: DT_INT32
        tensor_shape {
        }
        int_val: 3
      }
    }
  }
}
node {
  name: "MobilenetV2/Decoder/ResizeBilinear_2/size"
  op: "Const"
  attr {
    key: "dtype"
    value {
      type: DT_INT32
    }
  }
  attr {
    key: "value"
    value {
      tensor {
        dtype: DT_INT32
        tensor_shape {
          dim {
            size: 2
          }
        }
        tensor_content: "\200\000\000\000\200\000\000\000"
      }
    }
  }
}
node {
  name: "MobilenetV2/Decoder/concat_1/axis"
  op: "Const"
  attr {
    key: "dtype"
    value {
      type: DT_INT32
    }
  }
  attr {
    key: "value"
    value {
      tensor {
        dtype: DT_INT32
        tensor_shape {
        }
        int_val: 3
      }
    }
  }
}
node {
  name: "MobilenetV2/Decoder/ResizeBilinear_1/size"
  op: "Const"
  attr {
    key: "dtype"
    value {
      type: DT_INT32
    }
  }
  attr {
    key: "value"
    value {
      tensor {
        dtype: DT_INT32
        tensor_shape {
          dim {
            size: 2
          }
        }
        tensor_content: "@\000\000\000@\000\000\000"
      }
    }
  }
}
node {
  name: "MobilenetV2/Decoder/concat/axis"
  op: "Const"
  attr {
    key: "dtype"
    value {
      type: DT_INT32
    }
  }
  attr {
    key: "value"
    value {
      tensor {
        dtype: DT_INT32
        tensor_shape {
        }
        int_val: 3
      }
    }
  }
}
node {
  name: "MobilenetV2/Decoder/ResizeBilinear/size"
  op: "Const"
  attr {
    key: "dtype"
    value {
      type: DT_INT32
    }
  }
  attr {
    key: "value"
    value {
      tensor {
        dtype: DT_INT32
        tensor_shape {
          dim {
            size: 2
          }
        }
        tensor_content: " \000\000\000 \000\000\000"
      }
    }
  }
}
node {
  name: "MobilenetV2/expanded_conv_16/depthwise/BatchNorm/moving_variance"
  op: "Const"
  attr {
    key: "dtype"
    value {
      type: DT_FLOAT
    }
  }
  attr {
    key: "value"
    value {
      tensor {
        dtype: DT_FLOAT
        tensor_shape {
          dim {
            size: 336
          }
        }
        tensor_content: "\264\000\262>\224P\276?\010t\225?\211\314\017Ai5\217@\363\'\tA\221\273\215@\314\323\010A\273\255\336?\035yF?\300\266\021@\226\030\021@.\225<?\037A\322@`\014\336=\241\376\245@\000\314\t@1\203X?8Lk@\006%!A\362p\331?\n\003X@\366x\254?-\314\n@\r\365-AM.Y?R\235\225@\304\304\037A[pG@\230\331C@\240\260\272@\260\377|?\355\377\021A\000\376n?\327\351I@\377d]>\361,:@\205KFA\265\240m@\251\216X@yVSANf\300A\341\177\'?$\033\227@J\005\367?Z)\310@dE\213?\tQ\230?>\244\351>e\222Q>\354M\0276\010\271\357?\331\245\214?\260\3724A\310v\013@\361\314\202@F\267&@\331\000n>\363Z\325@\273\255\330?\003y\365?t\221\253>\002ua?C\332\326?\'\341<@t\261>?\035\004\360?F\037\2479\375\345\030A\316!\327?\226\321X@F[\215?\212\364\206@\3269\034@\177\207\251A\347\304X>\203@V?\"D\006@\347\277\027>\322`x?CZ\204@\211\320\202?\223\032*@\016}\027@\375\236\202@\262\351\335?.\346\005@}\315\"@\006L\003?Y\226+A\231\034\222?\3045Y?4\315\245>3\005\001A\224(\303?S/\363@\374\300N?\r\275+@UU\225@\271\235\221@\357\\\021@\244\207\350?\305\313V@\337d}?\n\324\226?|\322\226?\032\214\250?\213M\324?\211\346\274@~R\225@Z\252\271Ar1\353@\203\301\376=\364z9?;\245\202?\374\257\337@\261\217\222?\013\207\331?\376}\247?\372r^?\250N\223?l\254\306@\'u\'@\362\335\032A\021\301\227@K\030\337@-\370\346@}\331\254@\324\264\233@3\020\340?\330\341!A(F\321@Lc\277>f\250\216@O\231\2715\330\030\262@\277\371\253@U+_@\341\305{@\327-\365?\347\316\354?\315\027\252@$6\030B\370\260mA\311-\210?I\000\000?G\254\203@\335\245\304>X\016\307@\220~\232?\255\352\206?\242\021\242?\376\275\200A,C\203?\373\216\r@H^k@2q\034@\210\004\254>\204\330\306@k\222\354>\306\241\224?\215j\026A\002\206L@)\'\311>\032}\366?8\326\252>h\353\347@\366\014s@gmX@Z\325\273@\300\323\rA\201\233R@\022\236\313?\240\224\247?Mi\366??v\216@Y7\241?\0211\367@\274r\227?\271j*@4\246Y@\321\263\204@d\353\252@\234\020\010@\331\256\246?\355\212\343Au\250??!4\220@[\001\322?JP\226>T\356>?(9]?\001\034\353?\202\206\014@\021]\271?}\251\242?R\370zA\024Y\031@#\375\251@\034D+@{\313\233?\"2~@\365[<?X!\201?\303&9?\300U\312@\363\330AA\260\300\221A\342v\323?\211B\031?\277\034\213@\206,\002@`\005.?\222\210\251?\351\340\206?\232\354\240?M\231\302?\021$\020@\213\211$A{\272\214@B\277\251?\233\242\214@]\241f@\363>\325?~\342$A\352\305^?p\0171@\340\013\237@\036\204\001@\355\017\234@\264/\220@\220\365\000@o\022\026@a\372\352@{\271\327@0h\003>\357\366\006?L\377\334>zV\311?\306\037\226?@\356\016@I\211!@p+\030?\020z\227?\376n\206?Yi\352@\3111\346@\256\327\357A\262?\307@\376\257_@o\010oA\030\354\251@\177\343\027@dv\370@\264EcA$\235\252?^\031\350A<S\n@\203`\220?\352\351\013@\222i\r@kV\363@\214\237,@\007vw?1\323\311@p3:@I\006\361@yj\246@u\336X?NX\242?\323\332\233@Q1\216?\205\200\017A\317\227\311A2\036\213@P\256\025@x\374i>\207Wk?\235\026/@\037\2435?\235\264\016A\306\326\310?\354_\004A\320\272N@\234o&@\224\245~@\360\340\226@\267\315\330?\036\005\227?|\345\250?\375P\300?9\021\377>!\342\204?/]\306>\230\275\027?\177H7@\005\342\205?!.C?\222,Z?\312\010\024@\362\260\276@\337\\\270?\033\226\242A\341\345\014@2p\213?29\234@\211\316H@\312\0059?\214\017\354?\024\337\n?\020\2608@H\n\246?\266\374\205AG\036}?\201\340\210@\267\222*@l7\017@yq\212?\276\343}@\332H\222@\033\275\032A\333Y\225?\315\301\221?\223\275\366?\024\333%A#3\224@.\360\r?0Z@?\036\303\225A\3031VA\323\034\330@J\265\254@\023x\262@T\267\207?\325/\254? \347\321@"
      }
    }
  }
}
node {
  name: "MobilenetV2/expanded_conv_16/depthwise/BatchNorm/moving_mean"
  op: "Const"
  attr {
    key: "dtype"
    value {
      type: DT_FLOAT
    }
  }
  attr {
    key: "value"
    value {
      tensor {
        dtype: DT_FLOAT
        tensor_shape {
          dim {
            size: 336
          }
        }
        tensor_content: "GrR>\342>_?\335I\031?\324\373\010\300\322\312\245?\247n\257?\252\256\347\2773M\231\277u\272\030\277*g\334>\3737d?\221)\212?\245\206\307>\267oB\300\305\000\347<h\270\265?\341=\033?\213\217\t?m\337\252\277\213\200\n\300m\214\017?\\a\216?\\\354)?i\367\207\277\024<\277\300\3652\306>\\\332\206@S<\212\300\372N\204?\033\251\215?\227\347\223\277f\305\345>\376E\350\277t\355\014?\255\023w?\231\372\362=\013\r\206?2\374n\300W{\247?\004\353\346?\273\302\255\300\013\301|\300\034\006\232>\334.\335?\357o`?o\305\261?^$\375>\305\010\337>\\\321\231>i\3647>#,\3478\237\244K?J\230\025?\371^\200\300\267Ki?\302y\277\277\240\266\200?\275\222\r>\346\255\304\277\361\275Y?\237N[?\'j\204>\273P\310>\021\263%?}^\261\2778\352\004\2772\225\030?7\016\262;\022\361\227\300\363\2678?\3317\234?\343\270\010?5\330\222?\364\035u?\030g\023\301\274\017\013>^\027\334>\377`>?Ax\275=\2025\354>\003\232\331\277\202\252\355>\334\264\212?\'\224}?\006q\003@\325\357\223?2f_?TL\247?\"\005\236>\317\225\205\300\231\357\326>\002r\274>\246\272m>\363\025\014@%\347L?\207p\200?\307\206\270>\344\217\272\277\022\337\007@\304`\351?\347 c?\n\270y?8Er\277\312\237\001?\324A\002?\354\022*?L\301\006?\370\270\036?\202\223\251\277\331=\324\277`\335\213\300Qn\034\300\241\016\000>\361\250\272>\035\356\020?\215\3651\300\214\320D\277\341h\377>\024\000E?\0278(?\021\004!?S\254\327?\3627}\277G\3647\300-\361\347\277\374\271S\300\253\247\021@\371\036\026\300\263\r\245\277\255.\034?\032<>\300\2705n\277>\316B>.\023\274\277\206\375k8\336\330\346\277]\222\243\277\372\231\264\277Q\200\361\2775\037S?(\325C?M\363$\300\204\311I\301\251\375\275\300\250\213\370>\315\273\233>+\365\021\300\013\027v>\273]\372\277E\223\373>\'*\227>\317j\024?\315\303\201\300O\355\270>\310X8?\317[\335\277\362:i?\3131Q>\267i\004@\245\313\247>\250\016\300>9\300\223\300\235^\321\277\316\006b>\373\3254\277\220\341\205>\223A\271?\362U\256\277\273\261\253?\232=\024@\264Q\220\300\3256\215\277^b`?}m#?\375\202%?\212*\324\277\335X\334>W\331\335\277\203.\010?\353\320\034?\322 \213?_\363\262?d\006\304\277\212*q?\373\027\360>c2\027\301*\260\206>\333E\330\277$XK?\022\212/>y\354\261>\017\266\312>\355\033I?}8\t?\264/\365>\217\351\026?{\361\324\300/\351 ?Ih\266?8E\231?Z\375\016?Ek\337\277\3301\004?\007\363\256>+c\347>\214\251\301\277M\320\267\300\"e\200@\001\260<?T<\242>\\c\345\277v\327Z?\313\320\010?X\032Q?l@\017?\225\234%?\206\031D?\004NJ?\014.\030\300:\030\353\277\034\336=?A:\246\277k\270=?bs\036?\244\272x\300o\033\010?\024l\305?v\007;@\227K\033?\312\010\261\300\264\234\320?\320_5?mez\277\335R\304\300%\361\276\277_{\026>s\r\266>\350\n^>\350\304*?e.\037?\304\366Q?A\026J?\352\t\223>\024-(?Gp\006?\341\2305\300\373\351\002\300-\3000\300\372\337G\300\271\351\225\277\024\303\223\300\211\237\307\277\004\362S?\234\003*\300\341\331\016\300\001z\003?\312Gw\300\222\360??R\235\r?\032\247\211?\247\017/?\023\367\010\300\313\027k?\204:\007\277\375\374\326\277Lz\270\277\266\354\372\276t\314\373\2777\231\322>\337\231<?\213\304\254\277\222\357\330>\211S3\300\030\014y@\374\303\321\277\210\257@?\233F\'>\3426\021?\037\3325?La\327>\305\265\301\300\363\323\037?-\337\322\277\334\211\215\277\350\253P\277\377l\301\277t+\370\277\270\273%?\033\274\322>\376\013\010?M\221\206\277\335\3414>U\212\346>\247\336\233>\314F\313>\020\325V?\302\336\022?\357F\276>\320\354\364>\315\"<?\364\325\330?\002\332U>\245\303\360\300\306\341@?\314\264\364>r\215\360\277\222\307\177?J\236\213>\0171=?\213\365\201>\275Fu?\340\257\005?\343=\352\300\006^\n?\346Y\270\277\231\212.?-\336\260?\375S\037?qu\221\277|\312$\300^Ut\300\203\031\333>\316\234\023?\236\3520?\235\333[\300\223\376\312\277\255S\315>\0000\207>JZ\017@\005\230/\300f \\\300H\0304\300\266\366\253\277&1%?d\256/?\033\r\261\277"
      }
    }
  }
}
node {
  name: "MobilenetV2/expanded_conv_16/depthwise/BatchNorm/beta"
  op: "Const"
  attr {
    key: "dtype"
    value {
      type: DT_FLOAT
    }
  }
  attr {
    key: "value"
    value {
      tensor {
        dtype: DT_FLOAT
        tensor_shape {
          dim {
            size: 336
          }
        }
        tensor_content: "\214\367{>\232(\033?\371\244\r?\304;Y\2768\rN?\205hJ?@\332\223?\255et\276\355\357o@\316s\021?\224|8?\266\"\271=\224\370\265>\037\242^@7b\302==\032R?C!\007?7\037\025?.E\000@\230H\233?F\\\370>S\274\"@\231\271m=/\n\037\3001\270\332>\264\014\254>\217\265\001@\304\307\213?=\263l?\234\333-?\214\310\000@\342Cf?\312a\335?n\"\004?W\277\"?\n\3562>\373\030A?\326\365\n? \326\037?\324/\246\276\nR\231\277\204\017\216@\2138\266>|\034\025?Vh\036?e\235\311?&\\\377>+W\227>\037\232\312>\034b\220>\343\004t>7\373 ?{I\"?E\366\246?e\"\351>\212\250\016@s\243\317>f\325\272>D\347,@\207;\007?{H\014?\300\335\246>\311\346\306>A\361\026?\304wr@W\224Z@\376\007\t?\026&\247>\026\314\201>\211\256\240>rx<?\334\371\341>[\2757?_\330.?\350\206e?\"C\322?J\252\354>\363\377\016?\317\337%>!\356\026?\206\342\353?\271\366\340>\031\010\332\277\350\356\014?\374\tS\277\010\0276?\200\2743?1\033\346>Z*\324>f\314\271?\013,U\276\375\303\363>|}\361=\325\372\031@\331\275\357\277E\321\362?\005X\315>\003\207\304?\313\003\256>i\230\213?\004\232\246?\276\255\300?\361\375\003@w\231\306>\361\224\020?\220\014\274>\353\214\357>\037\332\307>\245\335\375?\345\232\025@\022\344\006@0\323\026@\036\352\221>K\205\270>[\202\014?\223\212\005@\340o!@\332W\315>WM\231>g\210\031?\003\255%?\273m\351\276\255\332\021@\203O\344?e\335\211?\210A\275?;(`?\300=p@\342\265\227?\001^\017?\301m\272?\360\200\362=R\017\241>\372Qf@\226\210)>\006>\024@\265%\006@W\321\220?w\323V@\336\256\305>p^\021?Y\352q@\344\213\357\276\016\rk\277\325\004\330>\332\010\330>\313XS@^\255\226>k\217\221?\000*\321>\355\262\275>\201\340\001?;\\\236?K\224\210>\233R\217?\265:?@\204\0204?&\371\235>\024\300\034>\312\024\313>\324\333\342>6\r\227\275\177\037\014@a\270\234>\332\275e@Z\326\231>\225\177\033?\330\343\334?\257\236\243=|4\213?\235\177u@Z\200r@\324\323\033?\006t\003?\022\"\030?>ot@\307\360\342>\266\177\207@\017\034\017@\332\003\367>X\271D?}\014#?r<\003@\300e\032?\376\374\320>\212\\*\276\250x\223>\212\031\034@\345\023/?\274\235\301>\021\261\306>\206d\340>\215\371\031?j\260\363>hm\343>\251\336\311>1\221.\300\327\002\022?\204\327T?{\373g>\370b\300>H\323\210@\314\230\n?\344\216\216>\356M\357>\352\014\342?\331\252??\203N`@\207X\r?\352\242\256>\361\344\t@\371\376\033?\313\374\023?\237\017\017?:\353\014?\267\302!?\334z\035?\343\262\256?\350\334\231?\334\274\362?\274\023*?\031\205\002@A\\\303?Q\342\375>\034b\n?h%\n?xtA?\253\031\373>/\370\007?\270\213m?n\242 ?\250 \315>4%0@k[\324<\001%\001@\210\367\245>Cl\274>\214(~>@`\002?\301j\366>sI!?\264l\000?i\347\257>\312\314^?5\241\302>-\212d@\n?\275?\212\006\232@\245\262\\@\313\377s@M,\036?{\221a@O>\266?\263Of@\024\320P@\202$\363>1\321\230@E[\355>\346H\010?\320p)?s\023\017?\037&\340>@o\035?~\372\336?\000\304\001@\014}\212@\201zS\274\022\020\336>\210i\013?\020j\t?\344\252\253?\220\314v>\272\201\236?t\322z?\2608\307?\207\024\020?\272\317b>Y\267\016?L\035\036?>g\271>\010\332\211?\224\000\352>\322z/?s%\004@\005\320\206@\031\2431@\366\342\211@\\\250\353>\372\355\003\276Q@\341>\017\206\203@\213\345\230>S\205\324>D2\237>\321(\346>0\342\211?\265\020\020?>\277\270>\352*I\275\277\003\006?_{\265\275Q4\237\277^\261S\276\030-\016?\376\377\362>\372\265`?ua(?\360\234\351>W\372\023?S\002\250>O\014*?\255\317\002?\270\277]?Gl\262>\204\270\204@\250\324\022?\342\374\307\276\242#\017?~\023\255??\206?@\275PS@\366x\321>o\3574?\273\\\022?\326\2667?\244\236\206@\213\253\305>\022\352\260>-\367\313?Lb1?\303UC@\200\024+@\317\300M?\244LB>\'\234\010?L\230\365?"
      }
    }
  }
}
node {
  name: "MobilenetV2/expanded_conv_16/depthwise/BatchNorm/gamma"
  op: "Const"
  attr {
    key: "dtype"
    value {
      type: DT_FLOAT
    }
  }
  attr {
    key: "value"
    value {
      tensor {
        dtype: DT_FLOAT
        tensor_shape {
          dim {
            size: 336
          }
        }
        tensor_content: "\203D8?\313\306b?\024$r?\020\010\033@_\004\206?H\311\207?JW\271?\304\223\030@\263\266\205?\363\277q?\205,\212?`\207}?l\351G?\2512}?\035\034\272?l^\213?\237\257k?%\365s?\310d\252?3d\334?\212\354q?#\225z?\233\206\227?v_E@\021\001\365?C\207P??\033\264?8\022\237?\006\205\240?\232hp?*U\236?\373hx?8\032\314??xd?h?h?\351\251)?\311\353\213?\357|\003@E]v?S\345\222?\343\035<@\360=\323?\303\002\205?\351Pt?\211\344k?\366\005\263?yP_?n\005l?\335\302S?\004%I??\220\037@I\310y?x3\202?\215\334\247?:q_?\222\324\205?/\341\220?u&j?\356`\207?\013!g?#\204b?\336\250T?\240\300B?,6x?\262\334z?\211\354\201?\357\001s?\237\210\351?\366\206\327?q6\275?\010\226h?w\247p?K3p?G!p?\366\232\314?\357Y\254?\2762M?{\213`?\325\021#?\334\027\200?ga\222?[\302I?\312\016\332?z\246Y?\353g\261?\035\013s?`\316~?\0020]?\234\370\231?&\217\221?\207\201\253?G\037\212?\307QY?\324lw?p\305\331?\023\263|?\301\t{??\343\207?r\332\220?\002\270\220?\247\353\202?\204x}?H\217\203?B\227U?\025\371\231?\022\325b?\367*X?\247Z8?R\017\237?\001\000\221?\354\366\374?0\257x?\020\353;?J\006B?2\364p??\317\215?\2222^?VFU?\0146\211??1\201?\027\257\201?t\010\261?\227\200\253?b\306\230?\356\211\316?\036\230\253?l\241\255?))z?\".\314?\376\322u?f@\244?tu\347?\033\364c?\006:t?\207\336\355?S\337{?%\000\270?\251_\324?F\006d?\036\320\214?\274\001k?\325\374s?GD\016@a\252$@f\037\\?\353\237b?\0108`?2eR?\030\311\262?\004 b?a\020h?{\325T?\277\247\242?\334\214\037?\025\350\203?e\312n?S\213\204?;\304K?\263W\345?\223\341W?\217\025c?)\255\344?\252gl?|AI?\032n\207?\346\0147?\337\236\215?\237W\256?\006\016\207?N\305\201?#\376\220?U\013s?\255\223c?\325\273_?\273O~?\034\321j?\003=b?\200W\212?\315!~?X\007l?N\340\207?X+L?!\213\247?\237\364a?\026ci?H\332\367?\236\366@?\036\335\213?\003\216z?z\350\206?\001>[?\341\376l?\242in?\276\242\220?\224\227\204?+\263S?}\321p@:nx?\342\325x?tH\275?.\256_?\202\021r?}u\213?\275\001E?\033\221K?\016K\304?\270\263\264?\214\017O?\016V\217?2\351F?\3536\246?\342\207d?P\265d?\203\371_?\002}[?\210\314\203?\231\310o?cS\202?Q\341\357?#\231y?\307\237\200?B\313\202?&Fy?\374\034f?\240\253\341?\312Nv?@=\205?\232R\266?!dp?c\334\247?\355[k?&bo?\341\301\222?\202s\353?\335]\226?\242\315@?\222\033<?\022\037E?\207\327Y?J\000k?\324\316\204?\025\252Z?b\346U?>\341i?+\342\203?n\247\206?\271i\245? \214\350?~\351\200?\3707v?\'2\317?\247\246f?c-\204?\3378y?D\375\332?\364\200d?\346J\274?\324cK?^\307o?\347\215[?\377Tt?B)\010@{\007r?\361\\\031@\345|\230?\202N{?\247\246\345?\226\231\014@t?\201?g~a?\340>\376?\200\250_?\2524\241?E\t\277?Z\\\252?\027\260}?\267W ?\336\241\\?\274\222\250?\310TJ?%\354\231?|9S?jR\027@g\365\223?F\254p?\312\234w?{ h?j\221U?\031\201S?F\005P?\312\334l?\315\216K?\203\215H?\326\374&?K\201\216?\265\203\206?\024\034\202?\\\342M?\013\004s?\016\272\\?\236P\313?\266\343\356?:\036\030@\177\347N?\331\376q?\321}\376?\025\013\210?\361\352\261?-\241x?\027\2019?;Bs?\210\256\211?g\346\316?\266\243a?\356fs?%\331w?\t\245\202?\344eo?\202{\005@\324Vv?*7y?\207]b?\363\276\\?$iq?\272.\307?\037ek?.\347T?l-\210?o\373\213?9\310\017@{h\214?v\253\201?9\336&@\340\321\230?S\303\215?\035}\253?"
      }
    }
  }
}
node {
  name: "MobilenetV2/expanded_conv_16/depthwise/depthwise_weights"
  op: "Const"
  attr {
    key: "dtype"
    value {
      type: DT_FLOAT
    }
  }
  attr {
    key: "value"
    value {
      tensor {
        dtype: DT_FLOAT
        tensor_shape {
          dim {
            size: 3
          }
          dim {
            size: 3
          }
          dim {
            size: 336
          }
          dim {
            size: 1
          }
        }
        tensor_content: "x9\005?\266\353\030?\312\220&?J\021y?\312>\022?o\027\027?O\263\033\277\001w\305\277&*$\277\377\031\037?!\301&?\222-\026?\211\367\004?k\344\000\277\270:\261>O\r-?\256\033!?\243\303\037?\320\225\'\277\250i8\277$I\032?\034\315\337>\006$\005?\364B\034?C\360\333\276\205e\030?\033\0073=\262`\005\277\375L,?\\\020\021?\276\352\036\277\366\360=?\036\0050\277\031\220 ?\215P\033?\273\001\353>~v\014?\200I\030\277\220P8?y\245\'? y\023\277\026\353\202\300\336\333\034?R{\005?\347A$?u \032>\312c\032?\205;\003?4\025\022?\370\377\001?\214)\306\271x\221\025?\220\314\030?\222\013\014\277s>$?3\\\036\277\233A\023?%\357\003?s\232,\277,\212\025?b\325\355>O\247\352>\260\212\026?\351\277\025?\273\351\010\277\372)\030\277\250\266\027?\275M\275\272q\024\365\276\347)$?\307\274 ?Qv\025?\266B*?1\244\024?\237\276\005\277#\372\"?\355\361#?\016\022\037?\025\247\336>}D\026?\204\253\005\277d\327\016?\340<\032>!\354\032?nS\326>f?\037?\241\021*?\370\214\026?O\342\027?++\025\277\223\274\026?;\310\037?\322\255!?\336c\'?Y\031\316>f\205\005@3\323 ?\\\332\004\277)\332\005?U\230 ?\036\222\035?F\023.?3L\034\277\373D\363>\244\243\037?\307N\023?\002\266\027?^\266\032?M\372\254\277\003{#\277\2318 ?&\266\376\276\006\276\032?\006\350\000?A<\035?\007\021\031\277i7\006\277\352\2144?\352.\"?@\235\036?\252\312\026?\232,C?\261&\034\277\001G\026\277l\035 \277\273\263&\277\315\017,?\013\026\004\277lL\027\277{r$?--\377\276\266\245\227?\373&\036?*\350\033\277\'\310\017<\344\022\010\277}q#\277\n\272$\277\307|\365\276\22606?\205!$?\271\312\030\277\320X\335\276\331\251\033\277\336h\005?\354\325\020?`\213\010\277\220\303\005?\320c=\277\327\233\031?\341b\020?%\253\033?|\275\005\277\177\222\024?\307\0160?\244\333\017\277C\314.?\326\333\t?\211\226\032?vR\031?\325\232#?\023\023\371\276\247\343\021\277\nv\024?\211]\024\2774\250\016?%\261-?\340H,\277\361}A?(\325\004?8=\026\277\222\276!\277\226\257\337>\307\275\'?\270\020!?\256\206\366\276\350u\034?\222\2419\277\375\276\024?\311\306\032?\324K ?\004\t\346>\374\205-\277H\2124?\356\250/?\364\320!\277\351\346\035?\211\230\017\277\225\024\035?\350\220\025?xu\021?\352\030\016?\255\246\026?{\032\317>\223-c?.\321 ?-}\344\276\375\311\025?\346\002\032?\336o ?]\205\344>-8\001\277D\301\005?\245\200\035?M\271\r?\200\2533\277\345T\032\277\327\211\016?Z\033\020?\007E\034?d\322\024\277\326\353\'?\236\340\035?\257\025\036?\305Q\020?\002S\031?\364\343\004?\253\320J?\221A\216\277}\235\373\276\000\335\024?\027\n\022\277]\243 ?\376m\026?O \020\277\225\357%?\273R\001?\375N\016?\223\365\035?\231$}\276<\356\025?\000\375)?\360k\013\2779w\336\276>\004\'\277i)\t?\277|\032?\022]\023?\201A%?l\211\034?\016v ?`\020/?;\034\014?\t\317\037?:T\013?\352\266\003\277\350Y\324\276t\3776\300\334\301\010\277\363\237\034\277\214\332\030\277O.\016\2770\252*?+v\017\277\304\367\360\277\340\362\023?\270\321\325>\330u\035?\247\251 ?\032Z\037?6J*?\311\246\026\277e\304%?\243\254E\277\251\004\'\277R\207\021\2776\342\200\277:\331)\277V\212\036?oF\027?\202\350\027\277\356\0331?\257\220\025\277\247w(\276a\261\020\277\030\244\037?\232B\354>M\344\013?#\351\037?\203\255\013?S\032\000\277\357\245,?e!!\277eZ\037\277\302\310\002\277\224\352\024\277}\365\031\277\271\361/?3\261*?\272\t\026?O\361\037\277\251\032\031?\233a\021?\342t\013??\226\033?>\356-?\366\r&?^\233\014?\266q\n?\251#.?\270h\016?Pv\005\277\312\255\370\276\300L\033?\204\333 ? c\025\277\004\301$?\306\023\034?\356Y\r??\t\022?9\344\030?A#\016?\341\243\343\276\342:\002?\272q\036\277=\033\037?\350,(?\341\343\035?\025\250#\277\221\317\021\277\207\271\026\277\214\325\027?Z<\030?\rA\n?^\326\336\276\020\214\t\277\236\215$?\024\213\005?\307\224#@w\365G\277\n\023\032\277\322\255\002\277k\316(\2770\263\014?F\314\037?\026\310\"\2778\002\335>q\267\023?\355|\023?\034uW\276\246@\t?V\003\021?$\373\004\277\331\000\305\275\2532\r\277\033\332\376>\302l\374>\027\n\020?i:\317>\200Q\007\277\026\014\255>\3031\034?\377\201\004?U\r\t?\034Q\020\277Y?\020\277\305\231\001?\334\375\323>u\376\353>\006\361>\276Y\304\022\277l\373\007?\225\333\267=\210\325\r\277\010\356\031?4F\004?\317\311\344\276\334\000#?\374\263\n\277\207\205\006?B+\006?\362\345\331>BJ\365>\311\343\342\276\356\243\013?\376_\010?\003\341\360\276\034\310\247\276\213\332\005?}\265\034?m\202\022?I\365\255\275X\270\017?\227\247\305>\013\207\353>\371F\005?\256\263I<\010\201\352>\321\347\354>\353\206\032\277\017\031\010?\002\030\017\277\267* ?\020\375\336>d\350\367\276\344\'\332>\3006\020?\370\255\325>\001E\003?\370\014\003?a\331\n\277`h\006\277\222\007\004?\372\004\271\273\376\305\017\277\3350\n?\345\245\024?\273#\003?1L\r?\345\004\000?\r\231\027\277)\367\337>(\244\345>\335\001\000?^5\305>\236\266\016?\217y\n\277\215V\007?\371U\030?\317P\004?\021\0277?(U\t?5\204\025?1y\373>\277*\000?g\347\016\277~Z(?gt\021?\034\363\371>O\323*?\231\307\022?\234`\312?\026\253\366>\3146\373\276KV\"?-\333\030?>\215\006?\270\307 ?\244N\004\277\307t\324>\303F\030?\215\n\016?\031Y\010?\335\202\344>\320~\267\277\316\177\025\277)\317\206?>\373\023\277q<\002?\033\371\323>F\241\r?\367\016\020\277kh\335\276\303\021\025?V\255!?{\247\007?\371g\365>\212X\323>K\235\004\2777\265\010\277\205_\001\277\266s\n\277\273[\362>\212\266\014\277\222Y\321\276\366\373\353>^\020\002\277\204\224]?\000\300\351>\351P\t\277\277\343;=S\376\032\277D\360\006\277\2113\366\276\370\271\362\276<\310\013?1\203\006?3\373\365\276nw8\277\370+\020\277r\325\014?\205\300\333>\337\257\n\277Z\257\373>\241\317\000\277U_\000?b\272\367>/\021\021?\334\260\007\277\304\034\027?\251P\024?\"\367\362\276\210(\r?d\376\360>\035{6?\\S\377>i\025\357>\3470\366\276\r7\372\276\301G\363>\236\302\006\277\275\271\367>\201\223\021?\364\353\010\277\371\265\005?\331y\022?.y\027\277\030\337\020\277\021c\014?\231&\366>\267@\004?)\253\006\277\332S\001?wq\007\277\2105\r?\336\334\004?3\377\n?\0179\010?\345\344\375\276\016\302\021?I\312\002?\367\337\030\277\375M\037?\037\223\365\276\\{\031?\266G\t?\220\204\366>0\334\343>0l\262>\004\010\r?\272\272:?9\022\001?\'\t\326\276\341\'\366>}\357\374>#\276\r?\215\373\333>#\t\017\277$\251\r?Y\006\004?f\225\010?\333 \022\277\336\207\005\277\217\251\311>x5\021?\2209\006?\017\325\004\2771\252\022?u\232\017?\352\000\017?Qz\324>Ky\360>\250*\007?\022\247\021?\021\276\220\277\336\004\346\276\333\306\020?\r\235\005\277\314\210\010?\314\346\005?\303/\367\2760G\340>\345c\"?\361\265\032?\3426\022?|\377\021\277E\023,?.\013\271>\336Z\005\277\277.\034\277k-\022\2779|\343>\353-\337>\272\363\t?\255W\312>\t\334\014?\360\273\005?X\302\352>\033\010\356>\272\000\005?w\n\377>m\327\030\277\237K\"\277l_\242\277Y\372\t\277\217\227\025\277|*\013\277\266\314\026\277\022{\004?\022\356#\277\224\271\245\277\242\225\024?\320~\325\276\376\'\362>\254s\016?#\224\013?YO\034?\214\277\360\276\242\021\000?\026\326\307\276x\326\003\277\220\236\020\277\331\361\016\277\034\353\320\276\335\304\006?\342\267\006?R\216\001\277\311\025$?\203_\001\277\203\316\366\276\256\322\316\276\374W\005?\3554\252>+\321\004?!=\364>])\360>\026m\016\277\034\037\001?\274?\334\276r\324\014\277\263\231\372\276\322\304\331\276#\227\'\277\337\003\335>\325\301\032?\317\013\376>\225\023\014\277:G\371>\334v\357>U\016\360>\302f\r?\346\232\003?\213\251\333>\310m\363>;M\301>\030\005\003?O\303\026?y\256\201?)\224\003\277o?\004?\237-\024?\220\333\370\276d\\\030?AU\334>\331\375\361>\351N\006?\342\177\363>\337\362\006?\221\216\032\277\325\356\003?\221<\026\277,\361\021?\226\262\372>\323\002\002?\267\252\273\276p\006\030\277\'\033\023\277\372\317\354>\000\327\022?\315\213\340>\000\376\361\276\017\035\016\277\210N\341>>?\274>\257{\216\276\377\003\034\277\314\330\007\277\266\241\014\277;\366\327\276\20111?\177\356\027?\220D\007\2772\030\367>{g\021?=.\034?\317\306\314\2775\203\006?\273\263\020?\235\256\022\277\277\320y?/\212\032\277_\244\027?L\231\032?To\020?\240\303\377>\014)\345\276\246h\023\300\254\220&?*3\024?\233l\024?t3\032\2772\336*\277\325x\023?A\034\315>Cd\000?t\177\\\277q\000\326\276\273\035\020?gU\324\274h\021\365\276\364i\"?i^\006?`N\014\277P;0?\266\364&\277EY\024?\254M\021?l\326\327>#\263\003?r\251\017\277\365\2601?\034\334 ?\033\211\007\277\371\360\336>\245\337\020?\364\241\360>\334\323\030?+\265\303=\027u\022?9\210\364>\270\336\005?\033\376\343>\245\251\277<D\357\007?gp\022?\262\332\365\276\217\267\037?\221\033\r\277\034\216\n?\213\030\374>\256\261&\277\306\234\003?~\313\343>\363\203\333>\177\001\016?\370\t\020?<s\000\277R\\\020\277\213\211\r?c\246\020\273\230F\324\276\254\274\"?\254\037\021?TB\014?[@#?L\032\013?\377u\355\276T\214\026?\003\200\032?\256\375\027?\362d\332>D\311\t?#)\373\276J\236\002?\222\203\035>\370\357\013?\251{\314>A_\031?N\035\036?X\235\t?\275\323\014?\240\246\022\277\324\322\014?\215(\024?~\312\027?o\244\026?\006u\271>\330_\376?\371o\021?\360r\366\276\214\363\353>&\374\020?\351\237\021?9\350!?\276\341\014\277\340\353\325><\260\027?\2615\n?-\037\r?\275U\027?\352\224\262\277\322\311\032\277\233\3028?r\016\354\276#\002\016?\\\255\362>j\033\022?\232l\014\277\234\272\366\276\026\263&?\224\202\024?\216\324\027?/@\r?\333mH?\"\037\023\2775\326\006\277\225n\024\277\'\277\037\277\232\326\"?\250\305\376\276\331\024\r\277e\031\031?x\372\357\276\212\226\220?\200\027\023?\257\315\010\277\315\320\007\274\260\010\000\277:\346\034\277c\n\026\277y\036\347\276\267T8?\263r\031?\225\341\024\277Mk\315\276\324D\020\277q>\000?\350s\014?\367\010\000\277\225@\002?M\353,\277h\014\017?\221\331\014?\241E\017?\264\227\372\276u\326\010?\351a(?/\350\005\277.r\032?n\007\001?;e\025?pi\023?x\316\030?=\177\324\2769\265\001\277q\001\016?m\210\006\277\274\332\004?\354U\037?\243\004$\277\010zC?\314\036\357>\215n\010\277qr\027\2771\221\324>\t\036&?\250W\030?\246\303\362\276\225\227\022?-\204+\2770\245\017?sX\014?\220l\037?(-\325>\010=!\277\313r.?AO\"?\3678\036\277G\354\023?w\366\375\276\306\n\022?\355\311\010?,\275\013?t\202\002?\257\247\017?\327\177\312>5 L?\302\202\025?\311\032\337\276\3355\016?\330\322\007?P\234\036?\216\210\326>$,\362\276\363d\362>\"\271\026?(\345\005?\303N&\277\375L\023\277p\375\362>\220W\013?r\311\023?\003Y\n\2778\306\032?`\367\024??\005\022?-\004\016?\017,\022?\355I\373>\374#:?F\204\217\277\210\353\316\276U\357\t?\317\005\375\276C\241\023?\322\016\n?\211*\000\277\203\314\"?\341M\366>\272\020\013?\334\027\024?a\213\\\276\206\316\013?m\375\033?@!\000\277\222\312\344\276\265\030\035\277\230\276\374>\233 \023?\375:\006?\010\373\032?y\364\021?\223R\026?k\315%?\035L\001?i\247\027?\251\266\021?\025\271\371\276\267\201\274\276\027\2513\300\265l\001\277\302x\022\277\305\035\024\277H_\377\276\210$$?\321\262\374\276\000f\357\277\306&\010?\253iw\300\217\334\025?\267\030\025?\275\266\017?\332z\035?<\347\010\277\004\236!?\344\2259\277\225@\026\277z\301\004\277\016Ag\277%.\036\277qX\024?j\201\014?{\365\003\277\270x#?\266\t\n\277\002\016\272\276\275\306\000\277\255\t\035?\276\252\337>\2773\002?\222\313\033?\355\321\375>\242\251\371\276\327\010!?\006Y\032\277\2215\016\277\350j\352\276q\202\r\277\351\007\014\277\003\020)?\244[ ?\374\333\023?k\277\014\277\254\220\020?&\335\007?)\013\002?\026\236\r?\357\202$?9\004\032?\267\020\r?v#\006?\347:%?J\223\002?\257\246\'\277\245\226\341\276?\271\r?\355\376\026?:\221\006\2777\364\027?^}\024?\224\325\375>y\341\010?]\001\r?\211\024\n?\215\236\316\276\345U\372>\272\222\024\277\027\211\024?\331K%?\201S\020?\"\216\037\277\356\363\005\277\356I\022\277\266B\016?\316\321\020?G8\n?\324\277\311\276\356o\374\276\022#\035?\301\265\001?\234g\"@\010|7\277\361V\023\277V\250\375\276\207z\031\277M\223\371>\314\201\024?\272\362\027\277_N\001?C.\031?\227\244\033?\375g\220?\210\312\030?\273\266\034?\t\301\001\277\014SB\277\022\330\031\277\330\267\017?\010\024\030?~\236\027?_\230\360>\364o\023\277\344Z\320>>\024.?\025\225\022?\232\022\027?\316\003\035\277\205 \025\277mV\004?\317\361$?\261\334\036?\006E(?\027z\376\276\034e\014?\257\224\250=C\311\t\2770\275\037?\016>!?\3352\034\277_\3200?\352\244\034\277/\234\020?\252Q\003?U\347\347>\360\242\022?\224\320\266\276\204\017\010?\262\033\372>s\253\001\277\370h\022?\036\377\021?\200\263!?\216\365\022?\231M\365>:\254\t?\016\007\007?\177\207\007?W\217\014?2\002\n\274\241\377\006?N\232\027?\036\310\347\276\205{\005?\256u\014\277\245\031.?\030\360\333>T\375\006\277\235\303 ?\265\353\033?_d\376>\\\355\375>\037\310\006?*\267\033\277\204\366\017\277R\360\024?)j\':_3\027\277v\236\006?\327E\031?\221k\032?\257\312\024?\353\255\026?\241\261I\277M3\"?\'X\032?ud\006?Z\017\333>\312\'\033?:\346\n\277\200\352\022?\273d\001?(\276\013?\264\350\020?\227\003\005?\253\026\006?\344\330\006?\216\004\n?v\377\021\277,\235<?k%\032?\226\273\000?!=9?r\344\020?\010\374.>\375\321\036?$\220\354\276\264\017\033?1\345\031?\314\325\013?\033\177\"?\016\211\003\277;f\036?\246\245\026?\003\350\014?K\\\025?q\213\027?\3608\212\276 \210\031\277\252\223\201\276\024\207\021\277\217P\022?\262>\337>\210\247\014?\246\332\030\277\354q\365\276^\234\016?B|(?j\000\001?\304\362\010?\234\001\002?\3103\007\277d&\023\277\324\317\t\277\307\210\365\276\373\032)?\273y\023\277\210\223\345\276\356\236\006?\374\021\373\276@\335\001\277\224\363\t?\3209\016\277\341\026\236\273BJ\r\2776U\022\277\241{\354\276{\275\021\277\267\373.?z\344\034?\310\244\002\277\347x\005\277n\311\013\277\317,\n?D\316\021?\204\213\t\277\270\007\003?\371\203\353\276i\310\000?\036\004\004?Y\377\013?u\314\007\277b\014\035?\244\321\031?\331\214\030\277\366\336+?\230c\346>G>\t?8P\020?C\241%?\251\227\377\2766\317\n\277o\365\r?D*\"\277\245k\361>0\\\031?\0148\007\277C\367\330>~J%?\334[\034\277\262\262\016\277\002i\031?\211\023\002?\255\335\003?<z\014\277\204\216\373>\026R\021\277vL\021?\276^\024?}\372\r?\367\324\r?\360\226\025\277\265R\t?C\264#?\023\321\034\277<\235\r?\356\236\006\277sp\034?_\247\t?B!\373>\321\346\377>\004\002\036?o(B?3b7?/\310\000?\321F\367\276\255\007\027?\205\321\020?s\311\013?\301\334\020?\214\331\035\277Z\261\027?.\360\033?\036\303\004?\031E\035\277R\203\001\277r\225C?\355n0?\342w\376>8D\001\277\266\330#?\240g\022?\205}\025?\335\352\006?\220\375\372>t\227\n?\342\356)?mx\022\277\034\354\016\277\253\262\022?\356>\016\277\363\177\013?#\305\003?\010\270\026\277\267\211\027?\261)0?\3661\005?\375a\030?\373\030\026\277\275\256/?\354[)?\225\031\006\277\267r\016\277.\260\027\277#\330\324>\023$\007?\312\231\022?\305\031\034?\322(\016?\3273\022?\260T\037?\276\232\361>~\301\026?]\257\002?\0312\'\277|\224\033\277N\221\241\275k\307\024\277\010\377\035\277\341\037\004\277\016B\020\277XD\r?lU\024\2778v\300\275\222\205\022?\0131\200>2\313\372>O.\031?\226!\021?\367c ?\244=\334\276\254\205\030?}\265\307\276\361a\007\277\217\250\023\277l\303\017\277\222!\361\276\261(\036?\244?\n?\302\203\014\277\"\242 ?\'`\376\276\377N\376>\244\373\010\277\367\216\003?\307\327\312>\207\211\027?N\276\031?\177:\010?\343\210\020\277\212\342\025?5\261\004\277\233_\027\277W\370\013\277.\004\021\277\245\341\025\277\335\265/?\215\007\"?\312n\375>\\\366!\277\341Q\021?\033\013\016?\312\313\365>\222\000\023?\002;\003?\272/\035?\002D\022?\363\265\344>\022\252\002?) #?\230\366\217\276\226n\366\276\322O\006?c\216\031?w\302\006\277\003R\031?\362\234\021?$\255\374>Y\233\376>\226\001\r?\004\277\021?@\030 \277\323Y ?\010\335\016\277\257\260\002?\334\014\343>d\307\017?\326G\007\277\302\007%\277\006r\037\277\346\253\020?mE\032?\303V\000?\267\017\002\277}\223\036\2776B\n?\266\344\355>z\350[>\205\010\030\277\323*\030\277\337\000\023\277I\r\326\276m\177 ?\263\200\017?\264\300\020\277MP\273>;\267\001?\346\001\375>\313\037\342\276\202\030\n?\026C\r?xp\275\276\212\257l\276\2325\374\276@\235\305>(\235\312>\326z\371>\245e\247>~j#\277\342\236\253>\201\241\n?\256{\355>\010\353\360>[\304\363\276\276q\215\276\202\266\316>T\324&?\253\033\262>K\274\252\276\030{\005\2771p\370>\340\037)@\270\327\000\277?m\005?\241\226\007?\351\177\267\276\264j\007?\355s\250\276\355m\312>\375[\333>EM\310>Q;\023?\177\'*\276\375\016\261>\025f\251>\220y\316\276 {\252?\252\364\342>j\301/?\265\241\005?jL\272>\341\246\346>\344J\237>\323\"\310>\243\030\023?\270\343Q=\202:\361>\253$\324>\263\003\006\277\342\350\251>\352\202\336\276g\362\026?\375T\242>lEo\276\264\350\321>i\227!?\021\021\335>X\351\303>\220*\314>\224\320\017\277\rt\360\276D\262\000?9\315\202=\266H\006\277\213_Q=\276=)?f\276\361>\277\006\001?\005\213\366>h\3661\277#\243\343>\"\202\322>\014\323\241>\266N\270>Y\232\010?\307\033\020\277W9\001?\366\3710?B,\335>\226\273\032?WM\253>\272\362\333>\220\233\321>\207(\334>r\377\375\276Q\227\022?\214\330\001?\276A\231>\037\355C?\010\363\347>%\315\021\275\345,\342>\362\364\322\276V\314\025?\347/\026?\256\263\324>\314\027\005?\013@\302\276)\347\360>\217\365\007?\237\271\376>\336W\376>\201#\270>#{*\276@`\343\276\336i\017\277\305\362\'\277Z\334\326>!j\240>\017q\342>q\220\361\276\237\356\257\276\327j\321>\010\235\021?\037\205\276>&\357\321>\030\207 \276\221\266\314\276-\333\024\277-\273\247\276\250T\236\276\273 \316>\203\333\014\277\215y0\276\314?\306>\376@\t\277\212\251\017\277BX\310>\200\036\316\276\236\2736=D\004\n\277\303\177\303\276=\315-\276E_\007\277\344\255\333>\314N\366>\310-\237\276EY\n\277\372g\312\276\305\206\357>GG\242>S\325\340\276\370k\337>kZ\221\275\027_\257>\014i\342>+\307\344>\004\022\360\276\030\007\332>\346u\347>[\300\254\276\262g\365>\320}\277>\300\315\374>\267\324\321>\226\222\335>\225\255\003\277\317t\323\276Tu\316>\0139\037\277\352\351\225>(\275\366>w\206\211\276\316\273\223>\370\2650?\027o \277,\317\373\2763,1?D\274\232>\311\n\272>\037\002\004\277\311\276\342>\033P\254\276\351N\007?\374\240\337>\375\332\331>-\216\003?8\247\253\276SK\271>\010\217\337>)\322\377\2768\372\311>):\310\276\3556\026?\237\317\351>\277\253\304>\265\225\330>\t5\257>\037\234\013?\214i\020?F:\330>gm\337\276\265-\346>3\234\377>\260\261\352>\234\374\346>\222\0077\277\232\240\006?\177\252\352>\034\346\300>0\320\347\276\203\251\276\276\237S9?\027\213\017?\207V\352>\242\013\230\276\345\300\014?\377\310\343>K*\372>b\337\255>\202\316\260>\356\273\020?\324\336\365>\304\036\033\277\277\305\006\277\255\375\t?\320\222\003\277\303\313\350>\237\332\303>xf\256\276\274r\267>ea)?\262\"\276>\373G\004?)\363>\2773\3502?o\332\234>\023{\017\2778\312&\277s\336\375\276J\222\266>8\370\271> \354\002?@\326\276>\262\252\331>\265\201\347>\210\314\301>\201\205\267>D\307\341>\267\350\317>\263\223+\277d{\024\277\352HL?\371p\016\277\266\004\022\277\274\203\353\276\332r\"\277#\312\237>\204\365<\277\246\223\343>A\031\355>\247\235\302?O\037\315>\320\233\362>\351C\365>\t\303\024?\271d\030\276\366\322\276>\316H^=`\005\264\276\350`\010\277\223W\"\277\231\003.\276\330\223\307>?\027\346>g\007\356\276\344t\r?\212\032\265\276\217}\024\276\331\226O\276Xg\255>\216\261\207>C\177\000?\206\304\217>\362\241\360>p\330\036\277\363\265\316>aR&\276>\335\010\277\365\353\370\276\'W\256\276&\240\033\277P;\327>\215\204\016?\233.\306>\3509\027\277\004g\306>hj\320>\021\325\312>\203W\003?\027q\241>\320\211\221>\212\002\304>m\301\227>\272\265\271> \251\005?\031G\203?\215\321\326\276\277\246\000?\347}\016?\235cZ\276x\236\002?\005\347\250>|\264\242>\331x\345>\275!\335>D\007\371>\242F\020\277B\362\004?;\353\000\277!\260\363>1\360\207>UH\330>\2760\215\274\3418\t\277\276\355\327\276\254\334\324>\273\031\023?\033h\252>\336\230\340\276\200\177\036\277\004*\224>-!\214>\016\312\276\277\202\2565\276\265h\340\276\033j\006\277\306`\234\275E\226 ?\021\036\002?C\250\274\276a\310\354>KR\022?Z\341\022?\\\230E\277\300\020\r?F\352\023?\356\363\000\277\202\205\234?\216\201\025\277JC\022?v>\r?\0267\025?\207w\352>\035\300\005\277\0250\335>y\345%?3#\t?\254\033\014?\277\337\021\277\357\223\010\277\232\344\001?\022\021\013?.\312\033?\365\200\335\276\004\244\376\2761+\010?\210\325\334;\307\374\003\277\033\376\030?\210\246\030?\304\302\014\277M\313(?d\367\032\277\200\315\t?l\213\004?\032\216\336>\005\273\021?\234\335\257\276I\375\000?\3662\353>\354h\376\2761\343m>yk\n?\016\000\025?\207\021\t?\200\352\370>\177?\002?7\317\377>Qj\000?\257\004\010?\260\231\334<\363\334\004?\305\305\022?N\344\354\276l\203\370>\341\211\375\276\222\313\"?,\204\323>I\023\006\277\234\324\032?\202!\024?\336\373\363>\344\344\360>\345\367\004?\225-\024\277/\364\014\277p\366\013?.]\202\273_~\r\277V.\010?\230\227\016?%O\020?\345\321\010?6$\r?\210\200>\277\330\032\027?H\371\023?m\354\000?{\356\324>\'\324\023?\014\226\006\277\207\225\n?\301\376\376>;\005\004?\025\200\003?\024G\001?\213F\003?\341h\367>2j\004?\252+\016\2770\234/?\206\270\021?\231f\376>\205&,?J\004\021?\373oB>\245M\024?i\241\344\276\2660\030?\253\352\017?\252~\006?\312I\031?&\202\372\276\302\355\024?Q;\026?\240D\010?\333\353\016?\277q\023?c\002\212\2769\321\013\277\324\356\202\276Y\353\016\277q\254\n?\236\325\322>\005\366\t?\240\371\023\277\202\005\336\276\007\242\001?\037\177\034?`\255\001?s\357\000?\240\n\377>\261\001\004\277\033\241\007\277\007\205\004\277\031\313\354\276\303K\035?Y\356\020\277\353\206\340\276\361\360\005?\334\323\363\276\025z\372\276\320\305\007?\266\353\001\277\030^\343\273\270o\010\277\304P\017\277(4\350\2765F\010\277\324\3224?m|\017?O\007\364\276\332\224\010\277T\335\006\277v<\010?>\210\024?\227\005\002\277\256J\001?\363\261\346\276\223G\367>\001\264\004?\233\002\005?\332\312\366\276\257@\026?F\306\023?\"\212\020\277o\325\030?\261\005\345>c\003\004?\347\031\016?\222\327\026?jj\362\276\256k\375\276\250\302\014?\306\036\037\277\202\224\331>\324\234\021?\032v\007\2773\216\350>\344\272\035?)\333\022\277\217\025\t\277\376L\022?4\221\007?\247\323\001?\0011\t\277\370\020\362>FB\004\277\252\267\r?\177b\n?\341k\016?;0\021?.\316\013\277\351y\005?F\301\033?a\211\032\277o\026\t?\364\335\373\276\353{\026?\346\307\377>\243%\010?\364\342\371>\201\334\030?a\301-?\206\027,?\204\200\000?H\347\364\276Z\332\016? \325\010?\325\334\016?\345\225\014?I\315\030\277\034\371\013?\371\332\022?\226k\002?\251i\026\277\227\257\357\276\271\2001?\017\362%?M<\366>\311\215\367\276[\272\032?\243\002\027?\320\013\017?\034\371\373>\005P\365>\301X\001?\0368!?\235\351\371\276\216\324\005\277A,\t?<\367\006\277\233+\006? \330\003?\367\343\t\277\236\237\030?d\303$?\355\255\000?\370]\027?I7\025\277\353\256#?UE\037?\341\350\001\277\250\213\007\277\215\217\022\277\351\036\327>\204\030\001?\341&\t?x.\023?\300\233\t?\361\010\013?<2\031?rq\334>C\245\020?\310\016\001?\235U\034\277H\014\024\277\223;v\275\262)#\277\007\016\022\277\261t\004\277\363\353\021\277\346/\005?>\"\014\277\255\233\323\275,\237\010?.H&\276\330\273\361>\213\252\016?j\021\007?\240\272\037?\2330\315\2768\036\023?\251\217\305\276L\037\377\276\370\014\016\277/\245\373\276\245\327\350\276\246<\021?\366\210\003?\215g\t\277\216\365\023?\245\024\366\276gn\271>$u\010\277\025\255\003?\222:\306>\014Q\r?\203\277\031?\250\027\372>\274\354\014\277\337]\006?\327\271\001\277A\213\024\2777\371\002\277\344K\013\277\253\026\004\277\017.$?\300x\032?!\224\366>\023\355\030\277-v\013?2\217\010?\030;\352>\374p\016?\220\234\004?c\020\026?\222\017\020?n\307\327>\315\373\366>!\365\032?G\373\360\276O\332\353\276\267(\376>\2466\024?\312f\362\276Y\003\016?\204\224\021?\"\233\361>\353\005\371>\317n\006?\2762\016?q\242\023\277ao\026?^\204\013\277\035P\006?\3153\340>\377W\007?\340X\005\277[\341\025\277\323\264\026\277Y\010\014?\205\302\020?#\361\375>\260\036\002\277\006Z\027\277\277\021\t?\345\272\353>\013\254\222>\274\310\017\277\273r\n\27713\r\277;\207\313\276%K\032?\202=\t?\243%\t\277\361M\374>\n\251\r?\256\034\024?\n\360\212?`\022\024?P\306\025?\357|\021\277\314\353\270\277\255\000\027\277\253\253%?\304\247 ?\275\257\r?\273\034\005?\006\355\377\276`\256\001?\331`\002?\321\225\033?\327`\035?6\031\032\277BW\033\277\334z\021?\177[\037?:\216\021?Yn\036?+%\275\276\300\206\374>\262H\253<U@\372\276<\024 ??\203\014?\367\370+\277o\234:?-\347\032\277R\323\'?\257\366\n?ds\304>\227s\010?\326[\020\277\236\037\'?\316\312\023?\375\356\022\277\'\215w\300\204(\037?\000<\014?\t\013\357>3r\270?\231\246\021?\371v\343>\026\330\024??\204\360>n\252\t\273$\244\013?\272W#?!\235\344\276h\360,?\326\004\024\277\245\020\000?T\250\343>\272\337\'\277\206J\035?\216*\377>\343\264\006?\202\303\006?\n\233\027?\n \n\277\374\252\n\277\217\371\014?>5\371;\275\372\354\276xI&?#t\376>}\305\r?\273\263\034?6w\026?k1\017\2779/\r?\370\253\017?S#\014?\255\371\323>(\244\022?\230\334\310\276\033U\021?\365\217\032>N\020\375>\361U\340>F\330\024?\337D\006?\371\014\014?\373z\002?\006\263\004\277\023C\020?\216]\016?\020\031\023?lf\357>S\271\317>\020tQ\277\275\337\035?f\325\364\276m\216\022?\342\231\005?\371\367\024?\353\265\002?\203\013\020\277J\222;?\305(\022?\267\225\022?\336\211\013?#\366\035?\031\253\217?E\031\032\277\030\345\305\277\332\\\331\276\375W\027?<\204\364>\022=\022?\321\014\010\277x\017\013\277v\217\006?\307C\010?\224\206\n?\0258\t?#\274k?Lp\022\277\235\000\027\277\3162\032\277\342\355\021\277\204\264&?\357\356\013\277oW&\277D\300\t?\262e\340\276q\031\247\277&\251\034?\375\351\027\277\337\306\204\272\220\361\360\276\034S\035\277E\230\024\2771\321\020\277Y\341\033?\325@\021??\215\'\277Z-\302\276\2500\013\277\225\303\004?\353\033\022?%\253\000\277[\002\365>6\247\025\277]&\366>,\341\021?\206J\020?P\241\014\277^\375\021?u!\030?\305,%\277\361)%?s\256\345>}F\010?t\240\t?YD\033?\301\377\364\276\302\216\013\277#p\n?\377\340\033\277\366M\355>1\245)?^\363\r\277\010\273y?\346\312\n?G\024\016\277\005j\020\277q\373\003?\371H\030?\004\263\005?`\322\r\277a\346\t?\226Y\022\277c\233\r?\351\020\017?\007E\032?\350\311\003?\272\240\035\277\356\352!?!\025 ?\222q:\277<L\000?\321K\343\276Q\310\n?\n\232\004?\027\254\t?\232\304\006?\0278)?\337\031G?H\201\031?\"\004\020?S\230\334\276n\325\016?\360\030\027?@w\021?\335\207\025? \242\376\276\344\024\007?F\327*?W\022\000?\031{$\277E\374\024\277\024\350\213?\206\363\025?\343\341\004?%(\013\277\361\212\n?\356\272\031?tF\n?\377\241\014?p\313\026?W\004\361>\014\0262?\006\203q?\277\346\000\277\223 \013?Z\371\016\277\324U\t?\223\207\016? \267\034\277\277\032\036?F\351\010?\343\305\001?\020\033\t?5V\225\276\306\321\377>F\360\032?\260\211\n\277\303F\304\276\222\213#\277L\262\351>\033\024\025?O\313\t?\0054\013?\340\214\026?g\367\014?\370\357\034?\232b\n?\210\\\036?\237\233\024?If\002\277<\351\002\277b\253??o0\004\277y\211\035\277\033\033\360\2762F\353\276wb\026?\"\365\337\276\244O\226>;\375\027?h\310g>xb\025?\232\232\033?\312l\024?yn!?7\306\034\277\212\205\032?+\021.\2774\274\023\277\035\211\003\277\333\223\242?+\262\025\277\327^\033?\261Z\021?#\322\024\277\\~\375>\030\313\n\277\236\026\361?k\302\036\277q\352\020?\340\317\325>\\\247\030?I\332\027?q\023\003?\201\\\362\276\273\007\"?HD\032\277\3010\r\277\341\320\n\277\3167#\277\205T\371\276u\366\013?\200\375\"?\347/\022?Zd\006\2774\371\023?h\361\023?\013\270\001?\t\341\021?S_\025?E\025,?\232\333\017?\334\001\030?P\006\022?\304\261\035?\242\373\265\2766\252\316\276\212\300\375>\232\035\003?\350E,\277{\310\033?c\263\"?\232\317\r? \n\357>2\327\033?\356\223\005?\323\014\026\277\202\320!?]\021\016\277c\355\021?,z\013?\014\r\024?CP-\277\013Q\031\277\257v\007\277\304\367\023?\010%\013?\017\375\031?\305\241\022\277\2477\013\277\357\255\016?sS\r?\177#\305?\332\0073\277@\177\030\277\317\020\023\277Nu)\277\261\337\r?\302t\024?\330\337\035\277eA\350>\204e\n?\2413\014?\354\n\316\276`\205\003?\335P\014?|R\377\276Y\004H\276\262Q\004\277\253\246\006?9\257\r?\271y\023?k\321\314> J\021\277\237\304\333>\345\007\370>\354)\013?q\275\004?t|\021\277\254R\375\276\345\010\373>\325\206#?\035-\352>\347:\314\276\253\036\025\277<A\367>\027\351O>P \005\277?R\005?\330E\002?\025\345\002\2770\260#?\223\212\002\277*\273\006?d\005\343>\377\253\275>i\374\377>\235\207\311\276(O\327>\345\225\377>\200\035\326\276}a\'\276\366\247\014?\027\376\r?q\242\374>\333\363\226?\303\303\372>\301T\252>\035\035\361>\311\217\004?C\317m\273,\347\366>!\342\004?\346\352\317\276\211\364\370>\203\354\377\276\201l\033?\252O\300>\237\244\344\276\251z\306>\232z\021?\234\344\357>vA\325>\365\014\n?<\330\n\277\261\344\002\277\341\307\367>\2376Y\274w\376\t\277\317\303!?\334\253\353>x\263\351>`o\006?\032\236\375>P(!\277\'\220\337>\262\340\341>\307:\270>\262^\277>\264U\006?W%\314\276=\202\006?|\252\"?\024\312\336>qAA?4\032\353>/\336\333>\372W\001?E\007\344>\227p\006\277\033\257\037?Z\320\355>\tf\313>w2\010?\266y\022?hON\277l-\366>@\213\325\276\322\n2?Wn\021?\270\227\013?h\370\016?\247\013\355\276+\035)?e\356\026?_\251\020?\311\013\005?W\260\367>\000\330v?\253\233\010\277\230/\032\300\365\003\016\277\344S\376>T\026\315>\271@\000?\242\002\004\277\r\031\355\276\026\257\344>V\266\007?\346\313\356>\"4\313>|_\021?Hp\000\277\032\340\r\277z\250\376\276O\257\323\276r.\327>\007\240\021\277\273\326\351\276\362\236\356>9\235\007\277\t\\#\277D\241\010?\312\301\n\277\224\274!\273h:\020\277\357\220\002\277b\306\345\276\037-\r\277M}\301>\014\016\000?T&\364\276\345r\"\277I\231\014\277\200.\003?\341?\311>\246w\362\276p\200\344>0$\336\276\0008\325>\372\357\361>o\205\004?B\233\000\277]>\"?\261\211\004?5\036\001\277\232\006\n?\022a\306>\3679\035?\267\337\367>\r\372\017?T\242\006\277fl\353\276\246P\371>\2046\034\277C\301\254>\004\361\025?k\010\353\276\343\313+?\231c\033?\200\222\016\277\316?\000\277|1 ?\261\225\365>\256\243\340>q\371\016\277R\201\365>m\206\307\276\220\223\006?\247C\341>\223a\346>\342\000\037?\302\347\327\276U\034\364>\3024\004?t\310\021\277BJ\001?d\332\374\276\214*\006?\3336\364>k\301\376>\364-\347>\342\355\016?\013*5?\006\356\022?\274\316\004?\025\375\334\276\217\024\344>6v\003?\013\010\016?n\016\010?#\321\016\277:L\005?<\037\016?\303y\335>\205\007\014\277*\372\021\277\364y\211?L\367\n??t\351>\322\t\343\276\nh\376>\032\275\013?\351U\006?\210n\334>\244\224\357>(`\002?\311\\\016?\207\036\272?\2107\370\276\020\376\005?\206\206\014\277\307\327\000?\205\006\370>\3155\005\277\307,\324>\323\200\033?W\253\375>\025\366\004?\340\2327\277Y\304#?\314\245\310>\302\364\370\276)\372\r\277m5\"\277F\311\312>\270=\353>\254q\376>\311\270\345>\341h\350>\204\211\361>\363\322\343>56\354>\240&\014?\022B\t?\313J\020\277\260\342!\277\346\002:?6\304\020\277\350:\024\277\235\010\301\276\345+\006\277\314\323\345>\251\351\022\277z\202\361>TU\373>HO\200\276\347\221\374>\203\025\007?\205\223\010?\264\223\r?\024c\331\276\200X\346>\300\013\244\276\330\303\345\276\330\217\001\277\312k\210?\224\203\314\276\275\320\010?\3159\000?@\334\013\277\317z\373>\254L\354\276?i\212?\337\351\t\277Y-\365>\244\367\231>b1\n?\341r\261>\n\215\357>\t\254\021\277\r\034\371>\356\003\377\276\302\025\016\277\001\374\001\277\006\344\361\276\"\007\014\277+K\315>\224\335\033?a\204\000?\300\t\007\277\214]\004?,z\376>\2353\363>\345#\005?\207\325\356>\355\265\314>\017Y\336>\257U\355>H\350\362>\360\355/?\232\231\205?(\272\023\277ox\364>\336\215\373>+1\002\277\177S\024?\252Y\367>\230\265\367> \357\372>\201\207\000?\203\364\006?\303\331\'\277\370+\037?\251\004\023\277a\250\006?3*\310>Ny\345>7\226\362\276\2063\021\277\017;\020\277C\351\366>\030e\002?\343R\365>w\266\n\277\264Y\014\277\252\214\247>\233]\315>t\324\005\277\010\227\021\277\254\367\020\277\224\016\006\277$\317\336\276\3725\037?\005\265\021?\365\036\006\277\324R\363>\254\376\002?+\250\n?\250u\277\277,\000\n?\t\374\016?\261\\\007\277\360\\|?\252\252\017\277\220@\027?\374\354\030?n\315\013?\227@\002?5\256\366\276\347\227\365>\017\035\353>\277\265\024?AH\021?2\250\016\277\324\274\021\277\025\224\013?\302\230\020?a\331\014?;u\024\277\323W\266\276\266\273\356>@sT=\202#\341\276\262\346\023?\367U\377>\320\240\033\277uK-?b\374\022\277K\025!??\205\007?W\r\276>\247\363\004?\267\344\010\277\020\352\035?\032\353\013?\243\036\t\277\2314\215>|\310\022?:i\004?\017_\332>\304\342\265?\024\202\006?\275\236\323>\343\321\t?a\205\344>\tCV=\177F\374>\335|\032?\207f\331\276\373\333\037?\206\377\371\276l\222\371>\231\t\332>\223\232 \277\252~\023?R\355\363>\322\220\373>\375\221\371>q@\024?\273\246\000\277\020\357\006\277\240j\004?\312\000c\273[a\341\276\252\322!?\373\361\357>X?\002?\030\031\016?TI\007?(\323\365\276\317\342\375>\355\236\005?\276\351\002?\324\336\307>\227\032\006?\205j\305\276\316\372\004?\244\211h>Dh\346>\246A\333>\375\021\017?\377\032\003?n3\t?\227\267\352>\267\307\365\276L\007\007?\326s\005?/\016\014?\003\361\335>\005\275\330>\003UD\277\234{\020?\355&\336\276\306\'\005?\262S\371>1k\007?\3327\363>d\333\005\277\344r1?[\353\006?HZ\010?c\263\000?\244\344\032?\360\025\212?>\361\021\277\214\203\341\277w=\334\276\022\210\010?\340.\337>\264\234\007?3#\363\276\353\222\005\277g\270\355>\014s\370>\356W\002?\331\210\001?\013\262`?w\303\005\277;6\005\277m<\024\277Ni\003\277l\272\030?\243s\007\277\3342 \2777V\003?\006\241\330\276#i\227\277-z\030?\2102\014\277zr\031\274\203\236\353\276\364\017\025\277oF\r\277\330\201\005\277\000\310\034?\205\266\010?\315A\035\277\371\366\275\276\364-\370\276\177\'\376>\272\211\017?D\324\350\276\273\312\344>i\021\020\277`\372\347>ym\013?\004\233\005?c!\366\276\371l\007??=\014?n\313\025\277\025\000\027?S\003\342>\310\312\010?\312y\001?\\\303\020?\2475\337\276H)\001\277+\323\002?\344H\022\277\020f\316>9\263\035?B\177\000\277m\010i?\016\005\006?\237\250\000\277W\373\003\277\254m\373>\"\304\026?\317s\373>\251Z\007\277\305\317\377>\260\236\006\277;\372\010?\001\372\010?8\323\017?\375z\004?\320\356\021\277!1\031?\2419\022?\274\027;\277\234\263\352>\274\033\323\276\337o\001?\254!\365>\272\325\006?\320y\371>\262\377&?\247\017<?\tW\020?\025\r\t?\367\200\323\276\365\306\004?\341\225\013?\237\332\020?\363`\017?g\377\344\276\250\355\000?\277\022 ?\215\324\376>\261=\032\277e\305\007\277\'\233|?\367\366\013?)q\001?\027\343\004\277\206\301\003?l\362\021?\026\317\376>>\215\001?\322\235\016?$\214\330>\243a$?\004Oj?P]\355\276\210\357\000?\353M\010\277\265\213\001?\263#\001?N\005\013\277c;\027?\301\017\364>\213\307\377>K\275\007?0\024\233\276\356\240\353>\033\016\013?\302^\005\277w1\272\276@\206\034\277A\221\345>,\252\t?\257\316\371>\364\337\002?*\326\n?\177\360\002?\243N\r?U\207\373>\027\233\021?\013\323\013?\371\222\363\276\242\256\351\276\375Fb?\244Y\010\277;\331\024\277\363F\366\276\352\302\346\276\220k\016?Ts\327\276\224\020\244>\3030\013?\303\351n\300@\236\t?\235\312\016?\214\220\010?I\"\032?\246\210\024\277\0314\025?\\\234\"\277\237\376\010\277\331\245\372\276\272\037\232?A\010\n\277\233\245\020?6;\002?\232a\024\277\360\212\342>o\356\000\277\005\350\002@\2043\030\277\346g\023?\034N\304>\232\365\r?\305{\031?V\016\362>L[\334\2763\347\021?\030\264\020\277\314v\007\277\013\264\375\276;\032\030\277\336\350\340\276\323D\375>K\362\036?\213\306\r?g\237\375\276\315f\016?~x\010?\301E\365>\243\324\013?%-\024?T\346(?\374;\006?n\356\r?hB\017?TP\032?\246\203\367\276\344\001\304\276\321\036\357>\333`\354>t\177(\2770\265\r?\354\340\025?\354\250\001?\315z\352>\2170\016?1 \006?\303\303\024\277c5\036?r]\002\277.\203\017?[W\007?\023\226\r?\234\274\036\277\260\201\n\277\3412\376\276\224\377\r?\266y\000?\252\344\023?bc\n\277\032\322\002\277z\037\010?\345\230\t?\263P\305?G\262 \277Qc\t\277\335v\016\277\323\300\033\277B\351\n?\020U\014?\343t\025\277"
      }
    }
  }
}
node {
  name: "MobilenetV2/expanded_conv_15/depthwise/BatchNorm/moving_variance"
  op: "Const"
  attr {
    key: "dtype"
    value {
      type: DT_FLOAT
    }
  }
  attr {
    key: "value"
    value {
      tensor {
        dtype: DT_FLOAT
        tensor_shape {
          dim {
            size: 336
          }
        }
        tensor_content: "\337\215&@\0219<?\263\237\354?\247\334\225?\033\343\305@\2341\014@\236\270\374@b\3546@\232\235\375?\211\305x@7kb@\343=\205@\2319X@\001\336\200@\256\030)@,\362\314?\037;\022Aj\036c@ \n\rA]P\206A\314\2300@y:\247@7\273\271@q\303\367>@\367*AH\364\235?\357|\206@\236W\235@\260\233\265@\337+7@\345\270\362@\361]\370@3\343\240?\\\367\251@\201\tI@\371<\225@<8\006A|>\374?k\014\022@I\265p@\242\025\257?\334\272<@d\344\371@\205*\262@E\024\326@\032\345\273?\215`E?\366n_@f\215\224@\022\252(@oVZ@c\024\034A\301\337\037@9\301D@\254~\020@]\363\022?\2015]@\330\201$@\2566\315=v\204\241?\275\262/@\206\010\234??f\355@R(\336?8\272=@\016\000\003A|\301\033@\215z@@\207=\202?\017\355\001@\005\005\203@\363\367\013@\257j\326?m\347\371?\214(A@]+\367@w\025\217@\262\271\376?\266\327\275?%\311\216>c\242\375A4T9@\020j\006@\006\205\027A?\363\"@\244\337\032@h\016\323@\260\t\266?Y/\263@\365\215|?\313\017\276@\355(\302?6\330\227@\370\222\371@!\260\'@\230\305q@\324\311\243@$\376\262@V%\250@94\246@#\272\305@\2505N@\235d\005?\034\236\300>\216pb?\330z\257@1%\\@\374\335\315A8\260\362?\032\005\266@\325\371K@5\364\374=\332\311gAp\315\000@\371;b?\264J\302@\264\234\377?\210U\276@\271\3403AF\367\307@\327\242\210@\025\247\002A\232\004\222@c\271&?\244\005N@rH\310@z\273|?\002\372\236=7\232\014@\207|\362?\0278\251?%h5@\307B\223@\373\366\023@\022\266\330?\266R\226@\265\343\003@b\023\363@\302\344EA\262\010\376@5\375N@|\211\321@7\271;@8n\307? \035\204@\300\376n@=\245\363@~;\221@*\247~@\234\217j@\206\244\002A\014\343>@G\317\324@\234\375z@\340\226\240@\267\252\232A\352\242\331@\267/\247@hG3@\306\360\210@\313\034\260@\320Q\314?\371\032\243@\370,\372?\237\241\\@\230\327\336? \274\233@\241JPA\254\324\034@\013l\311?i\330;@\'\366\315@\321z\367@>\027H@\340\2326@\r\366}@\302.\215@\207\263\266@\n\273\210@,\277\024@\247J\000A\251\232YA\316\206W@!\345\'@`\251QA\211\030V@{\361\005@\364\017\332?^\230EA2\317\026A\003\277\204@\257n\211@\302h;@[\006\203@\266\265h?\351:\243@a\225\255@`\260\322?\220\212\204@\277\266\0327\275$\016@1eI@\333\223\222@\202\300\323>.{\024A\264\360\337?\201\276!@\212\204t@\245>\017A\301o\256?\243\206O8\362\255W@\371\3131@\334\026\336A\212\300,Ar*\327@\360 \215?vI\306@\316\0359@\n\177\366?\343s\360@y\267L?c\212\317?\317\354\312@\254q\301@\335\252 @\300\016\335?&\205%A\252<\021@\257\325\335?\362,\354@2\223\022@\265\311\223@\372\035\023@\317\3151?ky&@[\347\013A\235\234`@\304\267]@\030\033\243@)\372o@:H\301?K\347b?\211\3018?3-\212?\323\353\261@\330\347\252?\214\274\236@H.#A\010H4@b\217\356@\nI\247?\007tm@\355\270\360@\020\317\302@\214\350L@\223\237\364?\356\0273@\200\000\370@D\010\330@X\372\352?-\227\265@\236\020eAq\231Z@x\240\372?U\207\232@\343\300Z@sE\215@\214\211\021A\256\332_@\327\373\257@/\231\262>\206a{@\010j\232@\'\243Z@ d\243?\257\3606@z\306\262@\231\013\240?d9\201@\232w\272@\302{\026A\003\257\r@\364`\014@6n\226@#\333\036@n\n\227@\330\230NA\266\214\356?\217cW@\376\ndA\177\324\020A\010k\317?\307\231^@\233}oA\211|\"@\211\021\314@\333\256\300@\0314\304@\001\276*@\336\3327@I\310S@0\031x@\226m\024A\317\245\035@e\275\255@\037@\245@L\343{@Z~\013@\3330\215:\326\273p@\341Uo@\253\264m@\365k#7l\022z@GU\023@n\206\271@P\371N@j\275\020@\031\317\367?\340\206\037@\277s\026@\345y)@\311p\373?\315Zv@\323\034\223@\206\253\005@yE\256@b\251d@\345|t@(\347%@o\035D@\337\320\241@`\213\270?o\\\036>\263\265\031@"
      }
    }
  }
}
node {
  name: "MobilenetV2/expanded_conv_15/depthwise/BatchNorm/moving_mean"
  op: "Const"
  attr {
    key: "dtype"
    value {
      type: DT_FLOAT
    }
  }
  attr {
    key: "value"
    value {
      tensor {
        dtype: DT_FLOAT
        tensor_shape {
          dim {
            size: 336
          }
        }
        tensor_content: "\032!\252>\375$\277>\326x\200?\205 -?\035b\026\301\317\213\226?\242\351\223\277\273\325\343?\2306\315\275TRc\276\250J1>SQ\024?(\002\006?\017\341u@\256\250\271?\365\003b\276\217\024A@3\336\202\276c\251\275\277i\326\001\301\250\005K;\276\331\003>-\300\265?\274\214\274>\322\243\"\301\365\276\255=\257\376h@G\036I@A\354\235\276\261\370\325?\367t[?sa\231@\320\266\216>.\323\324?\273\372\322?W\306\213\300>\340$?4\354Y?-F{@[\205n?J\200\026\277\\\236\353\300\335\307\213?\2432\376?\3104H\3001&l>\351\361\204>(\375\n@\253\020)?\204\235S?\345G\364\300J\t\322\300gD\254\272]\005\272>\322\364\305\275\233\036\334>9T\354?r\346\237>\377\226\222=\372\247W?\000\246\023\277\242\254[?\353\231@@J\306\220\300\341\3044?\316\214\005\276\350\360@?\034u\215@z\330\356>\316\350\256\271VX*@M\205\245\277\373\243\263>\247\016_?2\234X\277g\332\217@:TA?\315T1@\350\177\213\276\375o\203>\307\220m?G\"\"@\266K\230\277e\256\t\301\331\242\215\276\243\226\213\276 h\220@%\257\r>>\205\220\276\037.\025?Jy\311\276\325\245\026?\350;\004\277x\233m?\250\256\306\276\312\321\003@`\344\000@F=\223>\326:\200\276c\334b@\306\031@\276\363\363\032?w\003e>\341\247]=w\307U>\344I3\300\340\276\316\300\263%\245\301kD,?\222v\357\277\027U\211\300\022g?=\212\205\036\301\347\232\t?0eJ>=\304\311?\034{\274\276e\201\253@ix0\300_\367\355?\035\367\307=8\324\020>N\362%?f\254\276=\2748U\2760\007\006\277\253\237u\276(\370\272@7\2001?\252W\337\300~z\177\276B\307\036>\375\245\236>\350<\237\277\'kr?\n9\274=\373\005P@B\227\261>b\307\245\300u\310H@Q\227\373\300w\301\374\275c S?=\242\233?\346F\265\277G\322\261>JE\203?\206\375\200?\321\210\265?\371#\215@\n!\252=I\215\375?\377\243\002?5\325\t@\313\306\241?\247\344\205\277\004X\304=w\277\211@s}\020@\341\240\262?U3\213\277\341MR?J\"\251\276V\005Z?~\257\010@S\251m?\005\347\t\300\343\265C\300UAL\276\354\177h\276f\033\264?.\226w\276}\223\025@\367\354\005@/A\222>\236\354 ?\r\202\027?\"\365\264@\372\254\034\276J{\301>\0251.\301\007B`\301>\3117?\205\'&>?G\272@B\241\303\275(k\246?w[J?\372x ?\317b\\@Kpm?)\364\334\300\010ei?\244\214\226\300\3356\362=\223\014)@\363\237\374\300\202\300\300>Ov9@\201\355\0079O\347\232?d\225\240=\024\346\271?\302\274\230>\364,\222>\211_z?c\352\235\275C]\356?f\246\203?l\312\006?\256\036\202:w\366f>\301\003\006\276{\272#\301\237\222\030?\242be\300\323R\244\267\215\355\022\300#\265\213\274\326\026\031?\272|\307\300\363\332\345\276^$h? ;\215@K\006Q\277\244\353\237\300t!y?\231\377\030\301\307\020\317\300\255\357\364\274h\304N@v\305F>Lb&@\3026\203\276\022\363\302>\240@?@0R\005\300\030\355D?A?\260?\025G^\276\250W\201<\347\\A>SA\346\275\276a\026?z\001A>=c,@DjS?6\344\266\277M\220\022\301\301\334;\276\202N\323\300\230\214w>\207i\321?\224\030C\300Y\232\241?\034Y:=K`\225?x\\\223?4\036\032@\376\006-@\376\016\325>(\026C@<\276\351<Fs\324<\203,\202>f\276O?\233\331\020\2755\001\222\276)\035\342\276\020\322\246\300c\253\"<\351\226\005\275F\331\310\274! D\276\2605\204?\026\020t\277D,4\2771\343\017\2774\316\210>\226H\027?\006:\304\300u\205\230=\357Ks?yj\360>k\001b\275y\377\026?\236\'<@\207M\226?\003\317f?\n\364\352?ep7@\205_\226?\301^\005?\n+%?\253\272%\277\256\253E\276\213\215\023?t\017\250>A\003\352\277\316\322\204?\356\261u>\343\032\306@F5\017\276\245\200\203@\302\324a>8;\264\276\225\320\276\275/\245D?\252\345\310?\372\'s:\016\312\264\276y\263\270\300\321\332\306>\374\025\2039?\221\034@F>\214?\276\005\r@!\253\t@*\257\275>\314a0\277\361\377\246?\r\324\300?\023\257\206>\001c\255\274m\267@@\253\360\000\276M\017g\277z\002\247\300\214q\215?Y\201\307@\361\3661@\210\343\371?X{\340>M\204\001\300\303\362\"\276(\234\330>"
      }
    }
  }
}
node {
  name: "MobilenetV2/expanded_conv_15/depthwise/BatchNorm/beta"
  op: "Const"
  attr {
    key: "dtype"
    value {
      type: DT_FLOAT
    }
  }
  attr {
    key: "value"
    value {
      tensor {
        dtype: DT_FLOAT
        tensor_shape {
          dim {
            size: 336
          }
        }
        tensor_content: "\365\236)><8\014?b\266\020\277\207\306l\276\023\333u\277s\006\223\277a\035`@u\261\250\277\210%\027@\305A\315?\245\037:\276\364!\203=\323\tR?\024\212\"\300\004\260^\276\2128\326\276\030+6\300\017N\027@\3236\252\277xQ\360>\330\212\r\277K\301\030@\252\360\203\277)/\025\300\326jB\277\212P_@\331\242]\300\320V\031\300\341u1@\227\241\370\277s\2758@\013-\026\300b^\264>fy\035@\327\017\027\300`\301\003\277\223_9\277Dkb\277\224\263W\300qJ\002\277\247\t\226\276\266\374\355\276\245v<@\243\257\240\277\334\027\007\276\250\251\325?\345ny=e\214\r\277\'N\340?\004m\327\277F_n\277\343\242J\277\220\004:@\354\3616@\202T\231\275\242\324\201\277\201\323\210\276\316z\256<\314\376\026?r\325C\277P/\222\277p\313\342\277\352\216\265\277\031\366\035\277\231m\013?\212\352\346\275`\232\003?\257s\205\274T\275<\274\342r+\277kZ(\3003\252\335?\277\306G\300\332n\325\277$\254<@\354\'\361<0\311\312\2771\241\367\277\230\277I\276\367#\001\300\300\024q?\250;%\300\301\010\010@\313\302\005\300\303^\222\276\240\211\004\2771\361\337\300*.[<\351\343;\276yj\210\276\300\273#\276\351R}\3009\340\241\276\nB\007@U\221V\276\327j\233\300\007(\212\277\320\004>@\256\354w?\273p\017\300\017\315w\275u8\361?\\\016~\277KF\205\277\252{\027\300R9b>\226\257\224\276\237\007u\300\227a\226\277?WJ\277n\336s>z\207\022?u\004G\277\306\237\343?\240\302\315?\324\322\226\277\234\347\"\276w\222q\277\300\326\374>\316z.\300@X\243\274u\221\371<BH1\276\353\3772\275\243\373\000\276M\026L@\223y9@Hb:\300\005\243\230\277\212\003\t\300\350oH\277\205\211\201=\223\312*@\216M7?SNS\300\364\215V\276\257\205\316\277\255\231\337=\364\013\205\277\254c\324\275\316\336\334\277\r\241\253\276\242$\034\276\203\246\307\277\243\256\346>*\300\341?\020Sg\300oL&\277\031\264\202\277-\350\377\277\345\"\254\275\212\207%\277m\371!@<\335\301\277 \221H\300W\337f?\372\366C@\t\215D\277x\215\010\300\020\366i\277?\317h\276\003\201\350\277\334\346\336\275F\352\221\276E\237\255\277k\234B\275o\334\300>\262\303\035@J\261\266\276?X\032@\330\261\016\277&}i\276\223\002+\276\202\005U\300\201\354\025@\315\036\372?x\274\216\277\230\0132\300\024\252\026\276\"\372\n\277$V\373\276h\244\021\300@&\327\277\362\212+@Z\234\300\300\212\322X\276o\026\027\300\234O\321\277Q\022y?T\260\r\300\030!V?\241\235\247\277\254?i\277\023\203\n\2767\324\372?%\021\230\276\366\017\205\277\331\271\250\277O\222\014\277\323\362\376=\221>0\300\251\242\221\2753C\025\277\343\300\035\300\007\340g?\024\027\217\277\341\002b\276x\034\341\277\013\213\324>\t\t!\300\004`\206>\031\273\232?\023H\356?\0071\211\276\255\217\260?c\253U=\365\376\025@&\203\030?\303=p\276xxM\276\026R.\275\307@w?e\227c\300\220\243\033\300.Z\027@u8\200\277\355J(\300\226\376\351\277\302[\277\276\245%+@hX`\300?Kl\277}J\301\277\034\256E@\2536\261\277#\216\235\277\245\345m>\253\342\003@\260\203\305\276\306\326\005@\204\230\240=\'\033\331?s\013&@\267\'\035\300\3164m?\246\256l\277\264K6\300\270\217$@:L\207\277@*5@\205\026\355\275\372\342S?\353\305=\300\013B\027;&&\025\277Eg3\276\262L9\300 8(\300\230\001\341\2763T\325\276\207\325\201\277Ru\337\276\302(\211\2755\225J@\251\277\r\300\273\017)@\n#\311\277\034]\037\276\244\2738@\311Z\030\300\004\326F\300\200\274(\2752\273Y\276yN#\277\005\270\253<\334e\313>\260\200\250\276O\0213@\264$\251\277\327\014\331\277m\262\223\275B\351\214?\025\256\033\300\213\205\312\275\37042\276\337\305D?{\305a\277\034\301\267?\262\003(\2773\327\300\277\275\373\036\277PlG@\037cX>$\342\002@\364\307\"@\247e\231\276)\212\026<]kD@\326\334Y>\244\374 \277[\227L\277\005=\001\3004%\001\276\337\357\024\277\014\322\224\277\363\212\022\277\264\254\236\275\2604x\275\024\021\017\300\020\312\257\277\ru\013@U\022-\276\254;\362\276\375\202J\276\323g\020\300\013B\003\300F\2250\300\001 h\300W\210\"\300y\363\262\277U1N\300\025\261*\277`\3722@GoV\275\215\323\355\277e\021j>\261\311\236\277\321\354B\276\325\301n\277\256\202\245\300\003\224\307\277\"\227X\300R\376`@X\252\334\276\220\262O@\214^\346\277"
      }
    }
  }
}
node {
  name: "MobilenetV2/expanded_conv_15/depthwise/BatchNorm/gamma"
  op: "Const"
  attr {
    key: "dtype"
    value {
      type: DT_FLOAT
    }
  }
  attr {
    key: "value"
    value {
      tensor {
        dtype: DT_FLOAT
        tensor_shape {
          dim {
            size: 336
          }
        }
        tensor_content: "\2614 ?\207\270\263>d\270\024?\317~\300>{\337\246?&\243J?I\020\014?\332\302e?\034\344\323>\360A2?Q,\233?-hM?\306\251\353>\237S\306?\030.=?\221\355\217?\264\325\322?\2158\031?\024\357\336?\033\226W?+\266\230?.\021\t?\004\333\247?4p9?Y`\254? \231\020?\311\233\316?V\366\254?\367\036\006?\370\310v?\356\2005?<\276\313??=\335>\227\214\013?\321\r\235?\223/\202?D\215I?/\2653?\351J\336?nI\234?\206@h?D\013v?\320\305\002?)A\261?\205\002d?\223m\341>{\357\233>``0?j\253\005?[\373\244?a\331\226?\376 \302?\251`\365>\373\325\002?\356\313W?\325\006!?*\212\"?,\000<?_J\233>\026\366#?\n\037\275?\327\3501?X9\216?\"C\257?\317\345\003?;\362\241?S\261\006?\002\337=?\247\230\347>\261\350y?MG\273?\371\337%?\031\320\241?\337\246|?\247\213\357>\235\371\014?\020\233s?\265\300\341?\016M\204?\235\363,?\271\3421?\236\356\263?1\031z>\337Z\006@\313\354\203?|K\214?\3271,@\326\274]?\372\003{?\255\016\005?\304\341p?\235\273\242?\000$\206?\245\376\024?w|U?_C\371?\241\t\217?y3J?K7\365>m\035\311?\003\203{?\257\256\353>\225\202\t?\250\212.?\224}\231?\357#\007?BH\214?\273Z2@\344VO?\3656\203?Q\272\"?\267\324\233>\030m\303?\315[\351>V]\322>\231Co?\237NG?D\325\214?Z[!?\330|\226?v\322m?\310\224\201?x_q?#\n0?m\351U?h\321\033?\2641\254>\270\342\344?Y\341~?\322\227\326?\000\207\231?J]\306>\341&\374>!e\032?.\235\324?H4n?,\007\275?\300\244J?*\351\326?\363\272\r?\317\360\331?<\374p?_`\240>\312\232z?(|\353>\210K\013?m\000\267?\006pl?\244\371\\?eL\010@\362\310L?D%(?\363)4?\266\013\226?)V\224?\037\273\361>=x!?0%\207?+\342\300?\017\250+?1~\220?3\237K?\374]n?6[\002?@sY?J\001\314>#\3416?\247[2?;\006\227?X\203\370>i\036\031?\300\216q?\257\020\006?\013\310\264?\355\260\342>\'o\000?\375\214E?\357\215\032@\362\266\235?\234\004\221?=\032\236?\310<\003@l\304Q?\2700\340>2\314?@\2116t?HJ\220?\002\356^?\013]5?\340od?v6\021?\202\200\357?\220dq?L\311g?\022Q\257>\271}\363>%\036\246?{u>?\266\302(?\210\327\210?\007v\222?U\333.?\261\\\037?\377\377R?R85?\361B\214?\351\331\243?\244<~?\255\337\373>LL\217?3y7?T\023\002?\351\263\262>\367\313\205?\256$F?\220\026(?\226\366\332>[1\034?\221\2550?\341\260\233?\212\245\201?3*\315>\365\032\221?`z\305?\346\\\037?\216\243\345?.\013\212?\314\235\010@d\204M?+\233\343>`\026\363?\007\177\231?X\022\205?w\340\310>\363\352\357>\275\014\212?\025}\024?\323\037\r?\255\344\217?\337\374\014?\275\004\205?\241\343\331>\032\343\236>\354\212\213?\256?\303>\247\253\207?\\Kb?\3513\t?\247\316\274?bo\024?\036\305;?\262\373I?\265\313\324?\207\340:?\310\273\216?1\345a?9\221\225?\227\376\276?\024\377{?o<B?\213!\023?\351\256\035?\340\177\230?Fs\014?W\220\255?!\020\330>\033\355\255?\375Qy?\220\275 ?\374\322\000@\217\001\377?Y\017\035?\243\366\253?W\030\224?\207`\323>\013 \272>\367\200\202?\375\354\005?$\370l?S\301\273?}\240H?\254\265$?&\013q?\354\026\004?\366\331\226?\320\r\324>\225\262\226?l!\r?\200J\022?\264\254s?\377\262O??\320\033?\3613\350>l\251\343>\032\3662?k\326\231?\001#`?\033\313\376>\323\246f?\302%\026?\257\274\242?e\325\272?!\240\222?\343\262S?\260\276U?\375\300\233?\375\205\211?\n\327;?\034\265\227?\373C\227?\317\337\372>\246Jw?\215\340m?!VU?\037c\214?0\303\266?\3045\323?\t\272\336?\270\313V?\030>\t@\271w\234?W\371F?q\342\020?y\322c?3\223\234?Q5\026?C$\373?\320\253t?\304]\225?\2424<@A\362\236?\311\325\261?\030O\364>Y@\243?x\217\211>}\026\262?"
      }
    }
  }
}
node {
  name: "MobilenetV2/expanded_conv_15/depthwise/depthwise_weights"
  op: "Const"
  attr {
    key: "dtype"
    value {
      type: DT_FLOAT
    }
  }
  attr {
    key: "value"
    value {
      tensor {
        dtype: DT_FLOAT
        tensor_shape {
          dim {
            size: 3
          }
          dim {
            size: 3
          }
          dim {
            size: 336
          }
          dim {
            size: 1
          }
        }
        tensor_content: "\217\346\177?\256\355\240>If\237>e\213\002?\007a\037>L3\302=Ub\020\275\314\220\311>\3539\220?\273\'\223?\275\332\t?\r\214\356\275\347E\242?\'6\001?>\002I>~\017\017\277\275[\276>a\335;\277\303\277\215?\352\301\216\277\t\315C=\010\350\266\275\234Y\'?\217\033\010?\216\277b\276:*\266\276\000\016V?\214L\231\275n;\235\277\1777\007?\246\363\226?\302\241\313>\335\262\251=%\257\"?\0021\020?\026M\233>\020D-\277\333~\254>\304eC?J$\251\276Cvx>\036\300\251=7\252\272?\220V\n\277&\"\032\277\020\375T?\373\023r??\"\\>%\241\204>\237\274\226\276\2544K=#? \2773h\t\277\361]\213\276\336/\013\273c\256\213>\274_<>\220\241\235\276X\001s\276\325\203a>~\211\354\276\244a$?2t\347>\347X!\275w\340\264=\233`\224?\274]\373>\005\231\030>t\367\203\276eO9?\221gm\276\023\345\017\277\321\311\337>P\000\024\274\205\273\213\276\220p:?\036\322\266?\331\353y\275\\i\374>\207\034*>1a\242?\312\370->O\344\375\276P\214\003\277H\313\035?\'`\302=K\315\016?\324\017\240\275\247\3175\277\025\212\227>\216\333n?\204\001[?\233\204\311>\265\366\362>m\207z?\330$d>\272\241\306>T\023\206?\336\274w\277\314\'\203<P\325\231?\204\006\204\276\225#\016?\0311\361\274\036\016\256\276\025\231\023\277\236\240\305\275\270,k\276\003\306\262>\306\351\217>nt\304\275\244]\250\276\\8x\277xl\004>\203\035X\277\001\264I>!\240\201?\261l\013>\300\337x\277\017\372\232?\276\356j? \235K?\305\200\326\275:\201\344\276\n\001\221\277\324\272\322>\353\032T>\260\371\030;I\3604?#-\246\275\360h1\277\016\023\215?\350\177\005\277\214\375\210?\330%\241?B\333\003\277\333\337\210=\2465^?\315GT\277\323U\300\276a<\240=\354\200\266?\037/\231=\326%\273>\356\223\365\276\226\272=\276\314\204Y\277\003}\376\275\321\306N>\004w7\276\273V\213\277\304\275O?\223\210j?W\376\355=\3246k>u\231\334\277%\375\227?\214\034\217=\020\336\030>\321<\010>\r\374\242=#_\375\274\376\346\302?\305w\347>\336\257\022?!-\371>\257w\364\276\216\016\024\277V\354\363\274E`\'\276\303\026\317>\323;=?\373^%?H\0253?&\276]\277\036\240\206?\021\334\316=:\326S\277\3226\203?w\372$=\254\267g\276\223\'\310\276\233\276\262>\t\376\277\276\231\341@>E\265\366\276o\030\014>\240(U\275\277X\306\276\324\276b?L\323\307\275\276\320y\275:\240}\276D\320\331\276Z\366`?qT(?\264\'\001\277\262<\230?\"\327\251>l\241\257\274\032.\024?\302\344\270\276\232L\266>\025T\234\276\316\212\231?\340w\231>X\335u?=:\241=6\035+\277\367l\371>\334\357\255<\374M{?\330\036\327>\033\312a\277\337x\256?\030V\r\277G\230_\277F?\221\277\210\002f?\020\007\353>\225\276\312<-|\020\277W,\335>\034\232A=\245\327\232\276\005*\002\276!\3218>\343\251\227\276\"\367K>\332\314\005?\t<\253>\332d\034?\324H\360>\340{\214\277%\3702?cz\212>\016\'j\277\340Ot\276\314\255C>\360\276\002>\316\326\347\275\371\014I?sf,?\030\034\034?\027k\321>`\220\212\275n\016\t?\301\212\312\277/;\316\276\023\274\030?\325\265\035\277\236^\356<\027\271*?\224\265\340\276\024\222b\275\225\301\037\277\311\207*?\031\305\305>\376\030\222>\272\341\247>\213\353l\2773\323\032?Y\205\276?\371\003\026\2763\331\022?\237\020\014?w\345\245\276L5\307>\032H+>l\t\027\277\"\177\332\276X\217@?\212T\260?X\240\'\277z\277]?\203\017\t\277?\036\004\277\357\022\254>\202\260\306\276U\340\260=:\367 \277T\0143?\013n\267=\013x\312>s\3606?\004\345Q?G* ?\217\nY?\373\017\365>\372\355\203=\364\3639?\226\006\323\277K*\216\275\267\226:?\302\326d?m\201\201?\377\242\373?\014?m?qz4\277\033`\326=!\202@?a\265\246>\224\336\202?\204\3405?/\244\014\277\267\206R?\364\266\020?\375\263!?\235q\024?m\213\226\277\214`O\277\275#R\277\023\207\014\277R\204|<\232\331k?\222\310=\276HU\220>\330\223@>\030\353\261>\322\003\016\277NH\002?<\006;>\214\304\320>x[\025?^\235\267>O6z?\3171\256?\334\256\331\276\246\357\337>\'\002\031?k\243\021>\304f\013>\215dB?\2563c\276@\360\374\276Q\322\213\276\301\353\235?\205\222\312?<)1?\2166\002?\230$\214\277\325Q\333>\341q\330>\234{\375>\360,\026\277\177\215\371>\222d\353\275T\232\375\276\263\217\017?\276\330\'?g\330\244\276\305\333q\2779\2262@\231I\342?\201\374W>OFU\277\036\314V\277\260\013[\300\206r\005@\277\326\025>\351`v\277\2253r\277\3158^>H<\030?\315M\245\277\324\004m?\231\" >\360\222\222>gs$\277\317\333p\277\357(\323>\213\206\032\300\177nK\277\205n\376?\251\021\017?&\240\346\276\230\310w\277C\303\354\276j\033\215>9\275\021\277Fx!\276~\236\267?\016\371\256?\266\276+>3\r\265\277\001h\024\277Wzb\2778\351%\277\300\230\223\277\347x\326?\rf0\277\367\037\203?\240\225\225\276\021\237\001\300\r\220\300\276\264#\257>\0203]\277\200\213\271=?8\335>\\\3219\275\326C\201\276\250\341\013\275\254\214\327\276\010\343\370>T.\254?\341P6\2769#\224>c\212>\277\236\016\364\277.\211\324>\242\302@?\027\2152?\321\261E\276\017SW\274\203\210\261\276\357\222Z?\305\233\363=\021\002_\275\300\255\326\276\301m\t\277F_3\276Yn\316\276U\327\350>\261\344\277\274\034+\350\276J\236\260\277+\336\252\276\216\346\313\275\025j`\276\022\345\252\277\336\375\005?\374\017K>e\247\330>\343\215\251>\267\226\326\277\032\353\313>G\333\257\276\365(\257\276\315\303\250?\343\354\273\277U\347\216\277\210\256\330\276\001\270\332\276\266\212Y\277u\260\301?j\037\277\277y\333\341\275\263\177\223\275nF\026\277\035\2474>\346\212\230\276\017\212\257>\311\311\016\277\031\262m>\366\307\036\300\353\242\355>\322\353\222\273\346\t\310?nn\350\276\366\363c\277\241\253K\272\377\017\234>X\206\327?\201\307\335\275\230Y\005@\214\022\242\276J(\335?\361\272\205?\371\257\305\277\236`\027?~\0070>\235\233,\277pI\001>\030\207\212\276\212\027%\277&\270\342=\0239\r\277?\276=\277\2268\201\276\245*\203?\363\324\266\276b\233\036\277\307C\265\276XQ\216>\363\2569?f}1@\343\252\200=n\277\316>\342\270\\>C\335\341<\354\232\002?Z/\262\277\374v)\277\360?\002><\303\222<\376\202\301>\200\300\205>H\375l?R\330\267\276\022%\010?\210\250\215>\216!2>\206G\247>E{\240?\r?a\277=*\234?\201\304\316>D\355\232\276\rq\205?\354\362,?\335\026\212\277\303\005\001@\305|&\276\212\222f\276Cb\021\277?\336\031\277\024\344\261\276\216Oo\277M\274G?\245u\004\277w\213\">B\255\200\276\035\017=?\377BK\277\365\002\351=P\3768?\361\372W?D%\234\276\014\245a\277\345\313\250\276\350\225\272?\215\363\364>n\320\003\277\270</?\361g\377>\364\\+\275\240a\316>l\371V\276\237\322\216?\347\324\016\276%ie>\322\240\357>\374U\371\276\226\234\033<\373\013\344\277\352\n\277?D\235.:\005\331\223>\333\354\215\274U\336\001\277G$\221\275V\030\316\27629\214\277\340\307~\277\354\326~?\214\252\003\2774L\257\277G\201\233\276\275cD\276\034j#@\002\345\010\277W\2569\277\"\256:?\2266\377\276\231\364\036\277\243\022,=\226\004Z?Q*\230\276\004\346\336>!`\202\277\025b\303?\364\311\341>\377\006\252>\213o<\277#\3424@\251\215\320?\375\320j\277W\233\017@\241w\221?\357\313\366\276HD\016@\225/9>\365\304\330>\364\272&\277\307\242J\2773\244\215<\0107\220\276,x\201\275\315\006\304?\223\303\254\276\377o\035\277T\003\370\2761\360\361>\010\024\271>\004\270u\277\375\215\332>x\0256?\021\356\033?\271&8\276\346)c?\27410\277f\3453\277\017<J\277\220\037\227\275\311\260\033>\227u<\276\214li\277\361X\036?\036\345N\277C*T\277\025v\013@\367\037\375\276\005\230_\277\006W5?\227\245\332\276x\207-\276, \245\276k\257\260?w\255\031@\346\353\365\276\221\354^\276\333\205\330?\332\305\006@\213SP?\335\253\261?\013L\227?\005\007\376?%\340\014\276W\"\013?\361\261\205\275g\260\036?B\343\364\276\317\333\230\276VC\252?\036\246\344\276\214\343@=\206\201#\277\"\227\257\275l\374\334\276V\343\004?\274\253\320>\034)\300?\372\222\017>\017r\347?\373F\214>|\003^>xL\351\276\253\342\217\276#h\260\277z\263\270<*\007\335>\336\354\024?\260\336W=P\261\364?O%\347?\345\014\207\277ZN\031?\370\327\035>\016\230\017@i\034H?\244\302\255>C}\237>\017~_\277\023\347\362\276x\333\n@\220\356\220>\350\177\210\275\212\360\260>zeV?x\306,>\343\225\026\277e\2009\2769`y?\020\335s>\302\265\203>\275\263\336>L\300Y>\206C\254=\005\330\201<m\204\343>{\233\212?\030\365\215?\340\211\247\276\241\037\313?H\036\233?\275\"\363>\345\222M>\335\355\236?\216\202\213>\264\005G\277\3513\216?O\211\222\277w\324\010?\363\022Q=O\311\036?\236\230\007?]\300\227\276\220g\234\276`\nQ?\225\260\305\275\343\354\217\277?\377\350>\274\250\241?\201&\326>\341\220\035>\360\336+?w\227!?\034\242\240>`+9\277=\r|>\246\'\034?\024\316\244\276\365\316<\277\"i\302\275\366H\257?\354\350\366\276`\026\'\277\017\201+?\243 B?I\274\027>\216B\207>]\206~?\253\205\201:\3547\023\277eV\306\276\274\335\220\276F\276J\276\311a`>j\346\010>K\242\371\275\031Ja\276\376\260\340=i\241\277?W\375\027?@\027\335>\214\273\256\275\374\035\013?\353j\214\277b\266\334=\216x\">\337\333\245\276Q)T\277s\\)\276\316\365\013\277:\330\375>\234\220,=Uk\254\276~\3266?\202\245#>\244\317\303\274\215\016\216\276\034\243\327=\304\343\314\276\342+%>\013I\007\277\253\255\n\277h(2\277\223\004\310\274n\226\016?\\#\245\274p\354\205?\025\332\262>\376s\n\277\240\030\215\276\264L\226\276\255\317\323>vea?\243y=>9\265\250>\001\026\213?\025\267[\277\255\t\337=\267\035\\\277Jac\276\306T\333>\357m\325\273\260G\'\275\005\020!\277\034@\005\276\336\302\261\276\264\016\204>4\313\230>wF\330\275\316\244\231\276\337\322\212\277\034\013\235=pBR\277\305\230\321>b\245}\277\277/\003>[\236U\277\225\302\230?s\264s\277m\265@?L\217\336>1\222\231\276\256\203\241?z}\366>\354\371\014>\372(;<\240\014!?\033N\343\273,F\227\277N\267l?\360\330\355\276\003B}?9\005\210\277\022\376{?[v\327=\241:\344\276\254)C\277\033\003\266\2762A\022<.\261Q\277h\330_\273\034\325\234>U\003\324\276nI\252\276v\033B\277\247c\'>\335\210\031>P\242\213\276F\243\226?\222\325D?34y?U\261\366=\177\310\224>^_\311\277\033\000\233?S\256\006>\253\246H>\n\030P=\3449\316<|L\005\273\352O\206\277w#\324>\210+\r?\357\357\340>\001\301\360\276Y~&\2770{??\221\323\210\276\366\342\235>yX\013\277\002S\037?lY ?v\204G\277\026qy?\227\276\271?A\034R\277\247\002\004\277a\r\374<\3103}\276\2075\275\276\201B\245>\200\n\347\276c\304g>\317\213\036?\244}\203=\312\233\036>\214n\234?\215\206U>l\331X\276G\363\023\276IQ-\276\006G\321\276\024u`?1\177 ?\247\016\003\277\277\r\216?\316\216\271>\223\366\214\274\302\305\035?\256\226\233\276\360\244j>\2400\202\276\314X\227?AC\241>\336\307\025\277\234\265\376\271\025\370\021\277\266\220\300>\336/Q<\233nn?\010\251\275>\261$A\277=\352\263?\362\235\356\276\022\253]\277I7\222\277(\377W?\355%h\275\333\037\211=m\331\000\277P\001\346>[\342 \275\311\364\323\2760L\005\276%\033\002>HuM\276\263\322L>\260E\355>\023*\274>\212d\346\276[\317\372>\247\342g\277\212\317\001?Z\353\\>\361\372\351\273\276\350\033\276v?\027>\240\'$\274{\0223\276\033\241;?\'\306\032?\222C;?\026\307\226>t\374R\276!\327\033?n\244\305\277`b\315\2768\215+?\346\374\023\277\342<\346\275\244\375\025?x\034\306\276\245\230;\273\310Ct?\377\005\027?\276A\312>\345\036\205>\233\216\267>\007\332y\277\230h\013?.\202\270\277\"\337\234\276\200W\340\276N\013\006?:\034\371>\343\250\336\276\tw\354?R&\024\277OA\301\276\322\2122?\nl/\277cF\201?\235\247>?0\320\305\276\222\307\035>\356\257\240>\327(i?\330(\373\276\326p(\277\262,\373>\003h\213=P?\303>\007\007\013\277\272\365R?\242\'\025?\300\217V??\206\345>\366k:\275\315k%?\001\032\004\276\221\225&\276R\225O?.\277^?\204z\r\277\341\373\206\276\240\001K?,N6\277\373\300\231>\n\r\333\276\027I\242>\365w(\277$\326\037?\346Y\013\277\010\037X?\372\2212\277\021\234\'?\360P\014?\275\006\004>\\j\035\277\031\330/\277\347\001\013\2777a#<\020\317\'?z\237{\276\206\233\221>\350\343$>\024D\234>?\035\303?\'\302\002?\265A%>\311\347\236>\202\365\n?\355\214\232>w\206u?\206\036\375\276\020\276\306\276\\\030\303>\001\232\014?_\0327>=\254H>\325\020T?\370\000(\276(/\364\276\216\233\033\273\025T\270<\275\325\252\276\347\010\r?\346\303\222?\302\205k\277A\215\255>I\014\034\300\316\n\010?m\001\270\276W\037\037\275j\353\356?hm\321\276\247;7?r!\365=\377]\332=\335h\034\277\312\\\227\276\270^\240\277\307/\276\275\362~\244\276\337\217\224\277)\376\246=l9\312<U\334\335>mg\200\277\221c\025\275wG\233>`\364d?M\326\"\276\214;\003?g\343\007?!\032\215?\267I\026?\270\373t?\227P\316>\242\r\033?\002\314\347\276\223s\301=Y\022\374>u\230\021\276N5\266?/#\007\277\002\n\024>\370k8>T\335\217\276&\236\007?\227\371\332=\257\322\216>\021\253\265=N`t\276Y\\\375\276\266\344\357\276yo\331>B\232\022\277\2338\273?\300\035\361>\276U\372>\375\247\001?-\333\374>\247\004b>$%B\277R\316.?B\374\026?G=%\276\214\271\334\277\235\000\361>-\322\000@.\203\365>\003\211o>\001S\270?\370[\266>t;\257\277\255\2632?\225\260\240>Lh=\277Q\331\224>\232\202\216?\273pf>4\362\364?\302\240\033=UV4@\0178\206>\034\346o\2773\257\024\277\320\272\337?\3338\t@\316\252-=\254>\307>(!\224\277a\235\374>qU\212?\340\245\235?\335Q\377?\236\305\023@\246z\212>\010#\241>\321\324\314>\353\"\227><zJ\276\303<0?\013\206s?\037\323\203\275s\251\211?2x\302>\236\017\370>\217\237<\276HO\353\276\211Zk\277/F\224=\250\2408?\310\'\232\276\271\374\r?5p\274\276\347]\333>bq\242\276\000\275\315?6c\202?\035z)>\230\230(\277\246*\245>\327\273X?@\362\303\275\311\337\220\277\350\273\206?\351\311\031\277\261\000+\276G\"y\275\207\207\237\275l\277j\276\375\372\341\276uy\017\273\2502\213\276\014\370/\276\267\036\201\276\2305F\277\336\330\214\277\373#=>\306\206\240?M\353\371\276\353\346\016?8\340J\276\021F\215?>D\345>\376\020w>i\323\336\276\247\270c>(5\r\276\327\245\301\277\233\200\032?\275$M\277\304\251\277\277nI\342\275\3111\216>=\313\020>L\263)>\313v\345\275)`\252=\307\354->^nm>t~U>\215\022\272\276\267`=?\274\037\275?\364\233\013?\356\013t>7\250\357>\3460\014\277T\006%\277\253\261\221\277nX\r\300;r\361>I7\336?Km\\?\277i\373>O\366B>\246\276\031\276n<$\277\256\1776@\336\271\325?\rl\377\276\346a\237\276\220\032E\277\330\002L>3\035\242\276\211\230\233>;q\323\277\3237\023?B\345\227=K_\244\277V\002\310?\210[\373\276B\355*\277\233\277\037?\272\223\000\277\214\034=?g\227\003?e~9\277\276\325\356>D\013\265>|\'(=+O\016?\010F\356\276\204\320\246>(\002\232>p\374k\276\000\342\001?rk\000@R\227\217>\272\255w>:\301\300==/P=G%|>\2714\255>z\247\177\277V=\234>9E\326\276e\270\024\277\255>\233\276\036G\n?\301\227\010@\252\005\304\276\276\272\231\276\354\366\010?Y\210\327<\367C\241\276\320Y>\276\327\024L?\270~\233\276\361\212\271\276Fq\324>l\240\203\275ZU\312?\"\260G>\232\340\376\276\236\021\245>\177\335G=\316{\022\300\000\324\374>\261\005\267\276\250er?4\315\031\277\360\306\001\277%\357\013\2774\204\322>@\021\313\274f\271C?\033>\371>\263P\211?\253\003\027\277q\020\242>\236^\362\276\273w\244\277\n\251\245=J\264\320\276RD\344\274\322\354\246\277pE)?\267s\230>\203\322\255=^\366\273>\"\tS?\377\272\377\273\232\263\302?\233[\300\275n\211\375?\322\177\324>\r-%\277K\312\027@Z\232 \276\351\341\246\276\314K\215\277Yl\026>\250\345\316?\203oL\277g\"\257>\000\007\224\276^\364\302\277{u\336>2\3457\277H\025\023@\214\201X\276\223+\200\276\310\364\215>\307\201c?\022-\307?\356\301\026<\265\373\207>\260_\350>\343~\037?a\214o>\314\353\035?\236c\206\277\301\\\313>\315!\235>vC\024?\331\335\316?hQ\204?\332\203+?X.\311\276cA\221\275_\275\327?Eb\252<\240\362\330?\\\352\343>\3761\026>a\204\032\277o\216\310?\345\275\220\276|O\255>\343\013L>^z\217\276r\322\367\276\022\240\245\276\007\364\005=\2216C?\000\320\317>;\357\036>\341\364\323>E\206\262>\307\004\327=s0\326>\300\345\257>W\231y=&\3764?\226\205\376>\276\326#?\032\260\250?\2046\251\276\227&\245\276N\003\344>\313\n\245<`\035\007?i}\223=\022\220\233>RU\346\276g,\270\276\352\210\300\277\033\312\257?)\202\202?\220\nm\275\375O#\277\230[\303?>\031\r@\032\361\321?*mW\300\322\227V\300\365\026\322\276\231\355H\277\344L\245\276U\206\235?\310\215\004@t\253s\277RU\007?7\334\253?\335U\036\3008L\034@\210\320\'\277j\364)@?\317\005\275\271\310\240?\304\313\200=\224\374\325\277\334Gh=\266\\\235?\025\330\273?\223`\220?>\250\261\300\"oX?eD\377\277?G?\300N\245\206?\232\252g\277\204\035k?r\314\336\276\212\305\024\276xf\252\277F\222H?\226\231\311\277\003\257\214\3005}\'\277\305S\250>\271Q\305\277K\363!?n\300\303?\217G\210\277f$\'\276T~\252\2772V\331\275V&\267\277\013\037\325\2777\245\260\277:\243\277>\247\245\271?\010;\314>\000\230\023\277{\004\310?P\265C\276]\267\241?Q.\261?\234,\314\277\375)f?\237\t7>\272)\036?\276\340\332?\212\276\376?\355i\'\277\213[&@\332d\037@\233\350&?\027m\264?\262\331\035@EkR?\243\333A\277W\374\005\2777\301k\2771\276\204?R\345\202\275m\335\005@\006\215\026>\3477\360\276\276\252@\277\326*I\277\205t\247?\376\335\225\276\242\333\375\2766\243\024?d\253\207=\356]c>\255\340\325\276\\\000\272\277B\340\227\277Xn\003@CL\014@+\224\224\300\251U\330?\233\246\350?\312\220\324<\024\351\204@Z\237P?\337\tu>2{i\276c\310\231\276\262\350\237\277<\365\202\277i1\315?/\316\222\277\223\230\267\277\200}X\277\226\034\374\276\255q\001\300\364\325\343>\332\361\346>~\367\200\277\017\245\r@<\203\340?\330\013?\300\031g\003?\367\217\206>~\252\000\277\007\211\325\277\277g\\\277X\002\224\300t\270\002\300\221\354n@\265\353[=\362\231\301\277\350\3229>\301\3057?\006^*@\034YH\300\364\267\241?\263e\207\276\343\325\345?\022<a?\316\236%\276I$$?Z\377\337\277\261GB\277\346\310\024@\313\214}?\242\245\n\277\247\233\330\277\300\316\310?\034\2378?\254d\267?di\343\275F\2579=\2205\263?{o\205\3004\341\n@\262g\305?\373 \304?k\300\211\300\301%\032@\366\321\000@C\226\342?\021o\002@?j_?*\002d\277 z\232?\314l\220?\266\232~?\211\240\005?6\322:@v\227\321\276S\346\n@\035R\252?z\336Q\277 \017\367\276\364\226\236?)\272H\277G]\361\277l\013\205\277`\3554\277\341\265\017\277p\204\207\277\372\275\010\300\037\242\032\277\322q\261?0K\227\277\353\335\030@\222\036\027\277\272\206~?\230Y\224?\243\010T\275\"\237\376<\212\033A@\324\n3\277\022\323\\\277)>\206\276{\350\300\277|63?\245I#\277\336UD\300\300\340\207?\242=\010;\363t\320>\214\233\275\277\3544\345?\332}\236?1\313z\300\234\245\246?b\376\216\277\265#\347>\256 \024@\352V\214?l\205\323=L\271\205\300f\326=\300\226\006\"?\3739\301\300\324\034\252>\317/:?x\275\n@Q_\357\277\r\3613\277\364&\'\277\260:q\2764\341\325?\220\020[?\224\261\201@\266{\245\277\267\231\201?\251\n\357\277=\263\266\277\035\233q\300\374\305\013@a\266k\277,\033\265?\343\222\305\274\320\362>?7\324\302?\324a+?7$\245\277P\315\030\276k\371\023\300\221\311p\277\277q\203\276\232\010\352\277\255\201\211?\211\372U\277\030\007\310?\353d\243?\027\377\022@\025p\006\277\254Y|\300\370>\005\277i\005)@%\177\213?\340\267\256\276\270\205\235\277\'/M\276\236\222\242?\022c\341?+\217\347?$\227\010@v\315\013@\265\335\232?Z\325\n=m8$@\004\177Q\277\365\262\030\300\001\266\031\277\201\322\224\277\\\"\226\300\233\362\317\276\032\255\340>\217\240\365\273lXF\277\366\253\373\276\234i\255\277\n.X\276s\244\265?\025Sj\300\\\352\014\275I\201T\277\255\322=\277\266}\306?\321\214\203=\014\270.\276\203\376A\275\033k\267\275RZ\272\276\200!z\300\240\264\215<g\235\216?\247\231(\277\300\250\224@\347\306\013@\300\326d\300MS\243\300\310\250:\277l\354\204\277\220`|\277\335\026L=R\267V?\032a{\275\010\311>@\370\2775\277d\354w?lN\030@[\304\030\276\210\010S\276\300Hm\277\340\333\251?\325_s>\025\"|@\020\257\r>\204t\203?\001\331\310<\034:\241\2771\024\324?\257>\022@92\002?\025\204\r?\251\244\324\277\251Hr?T\361\330?s{ \300k\216\022\300;\014\365?T\2247?\"\236\340\277\206\005E\277a\211X\275\250$v>\026\003\017@\313\256\301?\\Ml\300\310k\033<\026\307V?de\313\276\324\275\227\275UN\220\276,\351\334>!*\237?\364Fw\277\255\220\250>\371\252)\300\341L\245>\234m\236\275p\n\224=\361\'\253\277FQW?\202\227\343>\342b\323=\324DP\275\\y\363?\323q\205\276\321\256\230\2779\365\202\274\351\325\266\276\340x\002@^G^=\246\350\n>\034\250\303>\331\374y\277\226\361\005=e\r\202>\\\342e?\272\010N\276S\344\000?^^\005?5\256p??\303\036?:\373\221?\243\024\266>\367\246&?y=\307\276[\303\255=\225m\317>\246v\210=\320\347\346\277W\265\355\276\256\031$>+GB>\002\t\210\276\2167\004?vr\203= \335{>\332sf=C{\242?FF\212\276\0013\340\276g\362\263>\032\2734\277\272e\235?TA\316>m\322\371>\"\316\354>\237>\013?Z\033\272>\213\\\023?$J\'?\223~\002?\301\036\311\275\303\275\000@\222dL\277Ud\217\277L\363\360>}h\035>\207\222\337\276\207\350\301>K\024\243\277\367G\037?>Y\217>\261\017n\277\\[2>\335\366(\277\357\357p>;\214_\277\2026\025\275\362\243\321\277\270L\332=\020*k\277]\037\005\277\177Kh\277\321\320\227\277\020\252\271<\331\222\017\277KM\323?V\230\351>)*\242\277?7W\2777t\310\277tF\024@\262H\335>\013\236\204><\002\241>\001pi>\235\345\340\276\277\377,?\302\316m\277\235\300\232\276\013\353H?@\337\271>\345\360\331>\2610\\\2765\035\003\277wSa\277a\213J=\177\007^?o\224\201\276\255\345\036?\346\306\366\276\254\334\033?UsF\276E\342\223\277\207\364/\277\000/\316=,tN\277}j\331>\325m\254\277\345&\362\275\231X\026@\243,~?\337\333\217?\317NJ>\322\216\326\273\324!\341\275\230\260N\276+\310\376\276\375\026\022?\367a\000\277\361G\242\276F\367\342\275l}V>\237\223\266?3wE>YQ\366\277\373\351\364\276\027\031:?\306\331\'\276\362g3\275^*\263>X\314\212>Ln\302\276\035\360\277>\237kk\276zk\262?\244\354\322>3\250;\277\3569\216?\024\374\234\276\302J\307>\256\367\003>(\273 >\177V?\276\275\0039>\007\203\272=\376A\323=i\317\244=\3406\007\277\373\017\373>\'\216\210\277\252\312\312>\225\0036>\363\275\311>\222\262\372\276\202\0276\277\n\315\310?\222\325\007\300\327\241\312>.\003l\277I\232<?\351&\351>\342]5>\361\023\223\276T\252\214?^\0039@,\240\215\277\244\271\273\276@\234\305\276t\276/\277\205\016\020>&}\274\276`\371\211>a\032\024@\201x\001?\211\330B<\314\210\031@f\247\317\276x`\373\276\311I\017\277\277\206!?\357m\375\276\324\300I?a\025\320>\357\177>\277\310p\025?\320\016\334>glD=E@\370>\260\234\350\276\344]R>\327\334x>\245\313_\276?\224\330>\021m\'\277\337e\204>\212\002=>\177\244I=%<\031=\231?\355>\343S\272>\213\251\220\277+f\374>\030+\003\277*\230\036\277_9\276\276 ]4?\257vN\277\272\316\243\276Wj\260\276U\325\361>u=\336\274\253;\351\276<7\016\276\333\206E?##\230\276\0278\306\276N\345\374>wI(\276\344y\002\277b\374\252=N\201\021\277Z\247\207>\263\262\332\273\000!D\276\337O\351>\024F\251\276\350\033X?S\005\025\277\317w\005\277\300\205\276\276\225\030\201>\026K\215=\213#*?\030\005\222>3\221\232?\274\205\r\277\267~\t?z\032\276\276kJ\233\277GOG\274\377\354\256\276\352\3631\275\270\347\231?\016\213$?\003\257A>\224\211\276=.u\034>hz1?x\351E\275\257\362\255\277\236\250\357\275\270J\004\277o\355\366>\325T\365?\360\"\254\277\312\034\210?A\226\241\276\365h\225\2773\014->5y#\277\365)\343?\273~\013?\311\251\235\276\273\335\034?&\312-?\0272\262?\033\003q\276\215\347\323\2754pz\2763\357\200>.lb?-W\276\277\256|j\275\250Y\207>\201\007\025?=\226\010?\232\332+>jE%?hC<>t\214Z>\025\326\306>_;\004?\263o\206\277Qb\300\276@\035N?C\333\267\276\3304\257?\014\031L\277\030J\251=A\351\224\277\t`\270>\376Q\017\276\227;\362\276\201_\266\277\376\024\200\276\375!\266>6\302\023>\372N\366\276\204*\013\277%\273\210\276\233\2701=\365\016c?\000\022\244>\234 \220=\022a\316>Ah\243>\rB\237?y\000\251>K\006H>\0164;>B\235+?\321\022\314>\373\r\014?1\246\257<i\037\210\276\032\233\217\276\346\027\314>\212\203\017\275\005\341\340>\370N\n?\275\033v>w\t\350\276\224\350\342?\205Cq\276\360\024\201\276\266\377r>\314O\226>&E\003>\r\001%=\3434\360=\210\1776>\2354\217?W\224\311>X\013I?(*3>hCf\277{~\241>.\217\004>\234iL\276}|\257\275\361/q\2778\204\004=\005^\236\277\247\232\"\276\352.k>3\007\003\277\345C\223>\364H\300\276O\025\246?\246\2741?-D\200\275\262\026#<>(\267>Ma\231?vI\215>\330\335\215?\003\301}?\342V\000?a\021.>\203\210\274> \r\257\274\206\206l?%\227 ?\353?\211>m\275\030\275o\276\217?\341\314\213?R\212\363\276\364J\032\276Jw\005\276\317\221\215>\362\365\267?\003\260\225\276\217\3348=W\020+\277\021\203>?\3157\211\276\363\257\037>\031\356\377>\357L\006>\223^\214?Qb\366>\270n\025>\327\216\240\276\362\272\262\276%\344\277=f\237\324\275\367{j\276\017\317\257?_\370;?k\357\r>(\201d=\245`\372>\251zZ\275\340\351A\275p\201->\340W.?\312\205\237\277Kb2?\335\341\301?c\020\227;`\221\254>@\323z>\246\233\241?\033\351\033>\206>C\276\030\223\001\277\266%\376>E\375\016?5v\376>\205\250\023@\223\037\240\2766\313(?\221\350~?L\t\200?\n\216\236>\244\236\327>\353(\375\276\260r\t>\252\262f\275\364\222s?^@\223>}\361t=lZ\222?mm\321\276\302\033#\277>|\224>\004\257\006?jJ,\277\031\0161\276\004\333\256\276\250\314H\274\357\303\215>\231;5\276\302=\211?\201n-\277rp@?\203hT?\252wl?\004n\362>37\267=\276\256\016?%\205\220?I\260#?\207\233\016\277R\004\355=\024v\021?$\n6\277\367K\242?A\210#\273\"\330\177\275u\245\315\276\027P&=\235\213!\276\324\375\210\277\302^\202\276N\315\311\274W,>\277\3306\010\2778\3730>\223\353\224?\222\225\274\276\227l-?\333\207\301\276\232\253\204?\255K\247=\212\221!?w\252\364\276\3303 \274\337,\332>`\216\027\277=rq>\345.\212\276\253ZR\277\255\304\014?E?[?\3679\014>\231\240\315>\020\267\200=\322L\331?\252\272\026>~3M>\235\267]>\306\320\177\277\245.C>\200\014\243?-\325\027?\352U\000?\002\247\007>\213\020)\277\274\334\257\277\356*A\276YP\376\275\206\352\341>\002?\223?\235?\247>\203\334\276>\374U\354?0\364\307\275\020\243\335\276*k\311\276\213\177\035?\024\013\002?9\013\275\276\216\326\264\276\302(\000\276\233\035\214?\322!Y>;5\240=\327\254\377>c\003\324>Z[\357\275\0204\221?\035\200\007\276\320\370\227\276\240\034\021?t\325#\277K]7\277s\357\022?\201\346\227\276\200\231\374>\377\362\231>\246\326\365;\036\304T=\300Qr?R\n\321\274\261\226N>\354\204\234?\"Ws>j\245\237>\027\306\315>\256\3051?\264I+\277/9I<\356\274{?Rb\t?\366Tt\277>\254\317?Q\3704\277-\2628?B\246\304\276\262\215\266\276Ls\347>$\027\275\276H\356\r\277\336\331p\276\376\360\201=\3006r\277\020\324\365\2756F\335\274\231U\314\275\262\320\031\276:B\375>^\313#\276\272\230l?\030\225;?\njt?\230Nk\276\202\370\267>m\031\237\277\024\237\000>\006\334\223\276\003\325&\276\375\373@?\036%\350\274\304t\210>\365;\305=\t\257\211\2768u\357\275\363.\010=T\230}\277j\252\254\276E\034\005?\310\245\017\277\032\264\274\274\334\302\331\275Lp\n\277,\022/>\323!\236\276\303\036\235\276\277*\262>\034x\024?\253\265\270>rU\232\276\346\001\"?\"\\\235?\030k4\277\305>\214?@\323\263?\\\261\265\276\300\207\037?VD\313>\366>\350\276E\303\223?\233\\,\277M\034z?\240\261\263\275zp\252>\245\327\213\276>\376\207\277%\003\301>>\343\021\277\303\337t?{\266\017\277S]V\277~\303\312\276\361s\202?H\025\340>\211\240M\276\367Pp\276\206Q<?2\236\310=\340\005\246>h\252\260>\007@2\277f\316\351\2764T\233?\257\2608?KF\374>\333\002\272?yQ\335\276.n\347\276\360\243\223<\205\354:?9\241\341>kXB?\276#\022?\326z>\277U\202Q\277*\210-?\326Dl\276z\254\345>j\352O>\037\203m\277%f\374\276\302\262 ?\352\016\346\274}\366\\?\t\037\340>\034\316;>\027\204\225\276:\022\271\275h\233\360=r1\n?d\351M>\212\005 >\316\364\361\275\n\021*>k\206\220\277\211M\235\275\272\367\010\277:\243\353<\215\333J?\357\254\'>\202\367\030\2751\222\215?\253\214\331>@\227\267\276U\361\235\276\330\201y\276\035\344W\274L\231C?[\237F?,\203\225\277\2077\331>\na\217?>\006^>\342:\354>\272\r^\275N\325\037\276)\260B\276\216\327\360\276<\246\212=\235\025\337>\000\033\246\275\302<\033\277\253\221!@\3122G\277\345}$\277\027\276\222\276\317\220\256>\220\037d\277\202\220\327>]fL\277\323[\241?\334}\324>\327Z\205?\343x\220?\r2\255>\376S$?\337\022\320>\277Y\276>\275\024n?\205\007\036?2\220\305\277m\253\010@+\305\022=\346\300\265>\206\350\002@\324\253\275\276)\217\003\277\363\371\301>\337g\270?\336\372\250\276\000=6\277 \275\'\276$\314>?>m\232?\2035\273\276\372\017Q\277\363\347\211\276\330R\232?\377\213:@\206CP\277\005\t\r\277\334\257\200?\222)\327\276\231D\377?\317\325Y>?\365t\277\264\351\"?\2626\001?\000\220U\276\260\261f\276W\031\241\275\233\211\203\275\235\033\300>Fr\202\277@\256Q>\217g\266\276\245\261B>\302ey?-\254\346>\256\024\304\277\243\002L>\010\330\260\276\350m\"@\346\034\235\276\355\265\004\276\271;\246;\364M\235=OMF\2750W~\276b\001g\276$H\032\276v7\346>\357\245-\277$\204)\2776\004F?:\302\210\276\245\255\272==\024\315\276\366\'\364\277\177\367\240\277\234Gj>\032\025[>\375\233\231>\332,\252?\006\303\202>Fvd\276g\324=\276)]\244\276PH\017?\325@\214?\253\032\332\275(\201\304\276\0000}\277\362\232\311\276\312\013\310\277\303\213H\276\340\367\262?\007\022\263\276(\022\213?2\005\000@\375\332\363=1\n\377>g\355\212>4\302\325>,\274\231>r\310\376<\312c\343\277\207n\"\277(A\221?\277\320\\\276\235\301\022>\003\375\274\277\317\306\215\274\266\221\"\277\261\033$\277\347*a\277\"9!\277\370\303\204?\021k\007\276R,\023\277\355\320#\277F\270\375=g\013\305\275T\323i\276\266\267\244?p.\245\276\031\267\331\276\036\235\250>\343c\203\276-\211x\276\237\240E@\016S\275?\345\305q>\333:e?j.\030@\3764\361;\252\336\306>ic\253>+\326\017>wh\034?\374\241\270?\tU?\277t%\363>\266\247\032\276WG\216>Bb\277\2772\004\225>\316\244\023\276\365\242\177\277}\"\004?\002~g?\233u\256\276\'\357\241\277\033\253\235\276o\354\222?x\276\300>\036|\233\276\364\276\231\275R\243\036?xt\225?\200\333\270\276\024\246\206\276\246\327\373\2762b\273\276\273\221\001@\207*\330\276\246\221\215\277\223\317o\276\343!\316?\3409w?\376\264\334\276\270\225+?=\205\355?F\003\332=\250\274p?\240\261\250\276;\275\215\277\266\240\321?\230\302\246\2768\361\033\277\252\037\364>\333\2772\277\205\n\350\2746V\365>\003\031\036=\374H\243?\316\\\353?\372\3320=R\014N?q\203\354=\231I\006?&\336\305\273\321,\333?\221\023#>:\240\212\276\276^t=<P\024>\302\362\375>\342\2753\277Nmq\2769\334)\277\363\311\351?\324\016b?A\232\311\277\377\363\005\277\203F\327\276\001\302\017\276c\260R?X\232,=\006\255s\277\337\337\013\277\272n\224?\243\371`\277\036\276\n\277\211tp?QM\257>\007\351\225\276\266\007\245=\353z\235?\014\023\037>\331\216\t?\320m7?H\2314@\002%\027\277\302k\236\277\014\270\005@`9\304\277\277h\203\277M\221<?\004\002\003\277=\215\375>\361\023\367>\223\373\341\276\264aA\277j\272\320>:^\370\276a\2720=\224\027\360\276\313$\222\276\263\257*@\312\273\273\275\002<1?\353\271\004>\256\242\243?\242\205\264>\\\303)?\347\321\245>y\216\374\275\213\226\321\277F\240\000\277\3663\024?2h\026\277\205\333\357\276Q\261\337=&\211\212\276\252\344\256?,\022\344<\247\216,\277\024\3167\277p\327\271\276\250)\336\276\226\213O\276Y2\002>HS\007\276\251\013Q\277t\332\017\277s\257\005\3003\020`\275\256\362{?\003J\226=\255\031o\277\321t/>\222\017\022?\000W\322?l\240\177?\264;\341\276W\317C\276\224\331\221\276N~\255>4H\177=_N\254<\036\\\231\276Jt\342\277\035\325\340\276\034\343I<\213v\t\277\367Dl>\023\333\013\276\337S4?7\207:\276\347\345\033\277\366\261$\275>\304\363\276\350G\003\276\tm->\007p\273\2764\231\323\276\227\265\227?\341 