node {
  name: "MobilenetV2/Shape"
  op: "Const"
  attr {
    key: "dtype"
    value {
      type: DT_INT32
    }
  }
  attr {
    key: "value"
    value {
      tensor {
        dtype: DT_INT32
        tensor_shape {
          dim {
            size: 4
          }
        }
        tensor_content: "\001\000\000\000\000\001\000\000\000\001\000\000\002\000\000\000"
      }
    }
  }
}
node {
  name: "MobilenetV2/Logits/Conv2d_1c_1x1/biases"
  op: "Const"
  attr {
    key: "dtype"
    value {
      type: DT_FLOAT
    }
  }
  attr {
    key: "value"
    value {
      tensor {
        dtype: DT_FLOAT
        tensor_shape {
          dim {
            size: 2
          }
        }
        tensor_content: "&v\227<,v\227\274"
      }
    }
  }
}
node {
  name: "MobilenetV2/Logits/Conv2d_1c_1x1/weights"
  op: "Const"
  attr {
    key: "dtype"
    value {
      type: DT_FLOAT
    }
  }
  attr {
    key: "value"
    value {
      tensor {
        dtype: DT_FLOAT
        tensor_shape {
          dim {
            size: 1
          }
          dim {
            size: 1
          }
          dim {
            size: 2
          }
          dim {
            size: 2
          }
        }
        tensor_content: "@rF?\206\312v\277\310\360?\277$\204V?"
      }
    }
  }
}
node {
  name: "MobilenetV2/Decoder/concat_4/axis"
  op: "Const"
  attr {
    key: "dtype"
    value {
      type: DT_INT32
    }
  }
  attr {
    key: "value"
    value {
      tensor {
        dtype: DT_INT32
        tensor_shape {
        }
        int_val: 3
      }
    }
  }
}
node {
  name: "MobilenetV2/Decoder/ResizeBilinear_4/size"
  op: "Const"
  attr {
    key: "dtype"
    value {
      type: DT_INT32
    }
  }
  attr {
    key: "value"
    value {
      tensor {
        dtype: DT_INT32
        tensor_shape {
          dim {
            size: 2
          }
        }
        tensor_content: "\000\001\000\000\000\001\000\000"
      }
    }
  }
}
node {
  name: "MobilenetV2/Decoder/concat_3/axis"
  op: "Const"
  attr {
    key: "dtype"
    value {
      type: DT_INT32
    }
  }
  attr {
    key: "value"
    value {
      tensor {
        dtype: DT_INT32
        tensor_shape {
        }
        int_val: 3
      }
    }
  }
}
node {
  name: "MobilenetV2/Decoder/ResizeBilinear_3/size"
  op: "Const"
  attr {
    key: "dtype"
    value {
      type: DT_INT32
    }
  }
  attr {
    key: "value"
    value {
      tensor {
        dtype: DT_INT32
        tensor_shape {
          dim {
            size: 2
          }
        }
        tensor_content: "\200\000\000\000\200\000\000\000"
      }
    }
  }
}
node {
  name: "MobilenetV2/Decoder/concat_2/axis"
  op: "Const"
  attr {
    key: "dtype"
    value {
      type: DT_INT32
    }
  }
  attr {
    key: "value"
    value {
      tensor {
        dtype: DT_INT32
        tensor_shape {
        }
        int_val: 3
      }
    }
  }
}
node {
  name: "MobilenetV2/Decoder/ResizeBilinear_2/size"
  op: "Const"
  attr {
    key: "dtype"
    value {
      type: DT_INT32
    }
  }
  attr {
    key: "value"
    value {
      tensor {
        dtype: DT_INT32
        tensor_shape {
          dim {
            size: 2
          }
        }
        tensor_content: "@\000\000\000@\000\000\000"
      }
    }
  }
}
node {
  name: "MobilenetV2/Decoder/concat_1/axis"
  op: "Const"
  attr {
    key: "dtype"
    value {
      type: DT_INT32
    }
  }
  attr {
    key: "value"
    value {
      tensor {
        dtype: DT_INT32
        tensor_shape {
        }
        int_val: 3
      }
    }
  }
}
node {
  name: "MobilenetV2/Decoder/ResizeBilinear_1/size"
  op: "Const"
  attr {
    key: "dtype"
    value {
      type: DT_INT32
    }
  }
  attr {
    key: "value"
    value {
      tensor {
        dtype: DT_INT32
        tensor_shape {
          dim {
            size: 2
          }
        }
        tensor_content: " \000\000\000 \000\000\000"
      }
    }
  }
}
node {
  name: "MobilenetV2/Decoder/concat/axis"
  op: "Const"
  attr {
    key: "dtype"
    value {
      type: DT_INT32
    }
  }
  attr {
    key: "value"
    value {
      tensor {
        dtype: DT_INT32
        tensor_shape {
        }
        int_val: 3
      }
    }
  }
}
node {
  name: "MobilenetV2/Decoder/ResizeBilinear/size"
  op: "Const"
  attr {
    key: "dtype"
    value {
      type: DT_INT32
    }
  }
  attr {
    key: "value"
    value {
      tensor {
        dtype: DT_INT32
        tensor_shape {
          dim {
            size: 2
          }
        }
        tensor_content: "\020\000\000\000\020\000\000\000"
      }
    }
  }
}
node {
  name: "MobilenetV2/expanded_conv_16/depthwise/BatchNorm/moving_variance"
  op: "Const"
  attr {
    key: "dtype"
    value {
      type: DT_FLOAT
    }
  }
  attr {
    key: "value"
    value {
      tensor {
        dtype: DT_FLOAT
        tensor_shape {
          dim {
            size: 336
          }
        }
        tensor_content: "\260\315\023>\326\222[@l\032>?S9]A\362\325%@k+=@B>A@\341\373\213Ag\006\337>\225\n\315>\347\204u?\252\357\217?(=\337>\311\235\203@\372\323F>\037\3555@NS(@\267b\233?i\022\343?\227^3Am\375\266?\305\321\361?\270\260\230?F)A@\004\207\005Aq\270\364>m9\224@wD\022At\034&@\217\t\311?\323I\231@_\236b?\230\264\013A\306>\206?\206\351Z@\341\203\213<\333I\004@\310H\373@|\316\205@\264\272\362?\273\331.A?\250\256A\365\024\373>R\001g@\226\275\211?\217\024Z@\252\220\025?i\346\343>\251L\347>\326\003\235=\'\267Q6\264\351|?\217\336\235?]\351\273@\3545\220?\223}\246@;A\366?\230B\n>L1\257@.`\363?\364/}?\374\307\r>\017\342\352>\361g\362?\216\034\030@a\317\337>\312\307$?\261\270D:L\204\303@\014w\313?\220\366\036@\024\227\205?\344\232\217@g\025O?\321\357hAq\224\245>\037\212\212?/;Y?3\211X<H`\355>\241y\023@\215\306\016?\366\347\227?\346\032\021@\275\302\275@\231\330\346?\250#\220?;d\340?>\254\247>\037\032$A\006\177\212?\237\333\004?\302\005\346>\337\310\254@ja\231?A<\303@\215\201\337>v\222\027@@\034W@Y\n.@R\372\227?\014\'\262?w\235\333?\231\021G?\246\251Z?(\026t?\267N\020?ah\243?\020l\343@\324\311\230@L\227\346A\177$m@\n\"8>\272\371\367>\013\377\021?\204]k@\331\353j?\267\2079?]*\375?\322\272\204?\333G\355?v\375\216@a^\373?\264\357\222@u\367u@b\326]@o\366\300@*\240\244@P\277\021@m-\312?/\221\314@\352\373\270@\337&\210>\351\271)@\226\212\01672\220/@\206A\351?\220~V@Ko-@\017i\204?\2547\311?\324\212F@\227\260\334A\006T4A\227\211\004?\253I]?k\335\016@`\307w>\261\250\266@\023\340\177?\321\257_?\036Qp?\216\334\030Ac \225?\237\223\251?\357\020\"@\315\270\037@\005\036\365>u\325<@{\330\234>\324\t\227?\301\250\371@\315\237\356?\\e\006?\336\266\202?\341\323\220>\266\021\321@~L7@\026\020\305@&\305\212@\2127\261@\345\314\354?F\333\232?\363\000c?VV\373?\226\307H@\273 .?9\266\244@M\326\325>Y\006\312?\236\365\321?\000\307\024@\352\205g@\333\372\302?l\205\204?\346\224\221A\3277\326>\t\2131@\007yw?~v=>\237b*?\024\321\235>\305&.@\016\211\245?\210\335\200?\303\200O?z\266>A\236\326B?\327\014\242@\365\273\234?\177\377%?U\220,@\261\017\304>|\261\276>\362\367\271>\316\231i@ML\342@\247\004\023A\306\373\254?\370\000,?\027\370P@\316\215\313?\353\302\013?\001\014\023?\223]\227?\365xm?\311\016\224?\314\001\277?\257\002[A@\376=@`r%?\361\2157@ qM@\034\220q?:s\020A\375kd?t\3510@\007\357[@?\322\206?\330\031\227@(;w@\"G\255?;\235\353?r\345v@T\267w@\365jQ>T\343\036?\346n\210>B\371\251?\340[]?`\177V?\2533Z?\254\337R>\036Y ?\311\036;?\025\001\210@m\260m@{N\301A\216j\241@\220\010\355?\3058+A\246k7@7\375\274?\267 \212@j\250VAMz\002?\324w\005B?\340\355?xv;?6\304\300?\357i\231?/\221X@\215J\345?\235\235<?\333\360\267@\373)\306?\210l\036A2\237C@\335SZ?^\346\304?A \037@AG\244>`\260\302@\205S\276A.)\203@%\231\342?\243\021\272=&\210U?+\252J@9\224\374>\230=\025A\370R\030@\275\310\305@8\336\002@\242\023i?\302B\026@\270\323\357?I\003\270?\3304\244>\362\342\024?\024\003\205?q\244\250>0\241}?,\237\233>\r\251\232>\364\320\335?b\345:?\312\221^?\305\226\004?\026\325\347?>\227B@e.\275?T\023SA=\221\302?\314_\221?O7\220@\251r\256?P`W?\2261\257?\363\254J?\243\202\253?zF\030?\003\374YA\253\254\212?\000Ak@D\340\013@B>\307?\010\232\233?\336#\027@IvC@i\310\263@\356\203q?\306c\361>\375&\354??\331\274@y*1@ \251D?%\306\257>\305y\223A\371\021\'A\240\341w@\225q\237@\304R\207@\216+\023?]\332^?\202V\214@"
      }
    }
  }
}
node {
  name: "MobilenetV2/expanded_conv_16/depthwise/BatchNorm/moving_mean"
  op: "Const"
  attr {
    key: "dtype"
    value {
      type: DT_FLOAT
    }
  }
  attr {
    key: "value"
    value {
      tensor {
        dtype: DT_FLOAT
        tensor_shape {
          dim {
            size: 336
          }
        }
        tensor_content: "\225\377\037>\2602\223?\223H\013?\375/\003\300l\343\247?\266\233\250?\316\247\350\277J\004\211\277ov\303\276j;\333>\216\317K?\300\224k?\244x\266>\347v.\300\325\201W=m\253\243?\'\004`?f\0058?=\221\231\277\336%\016\300\256e.?kZ\205?\306\222\'?\021&\212\277;b\266\300\352y\256><\344\204@\177\033\207\300\002\202\203?]\363}?\212%\226\277\262\337\355>7\250\006\300\270s(?\031k\205?\004\367*=\002\200\214?\317\314l\300\225\260\241?!\231\300?\030-\250\300\233><\300B\326\261>\0060\301?\260\275??\226\013\225?\210\024\353>\306G\260>\004\306\265>\021r\361=-QA9\001\304\023?A\0161?!Hz\300\363\303Q?I\300\300\277\360\001o?vG\032>\315\026\324\277)\247h?\013\3479?z\316<>)\204\262>\210\007M?)m\256\277\210\321\375\276t\251\013?\001)7<\026\200\210\300\376\273K?\352\'\242?\217\216\013??\313\255?r\\<?r@\006\301\032mO>\224\032\007?7\030(?\353\375\017=E\010\330>\202\210\304\277\020\373\350>\311\000h?Z\005~?xb\356?\323!\237?o\037A?{\321\223?\017 \217>\2623\213\300\341H\002?\311\315\301>\200\306\223>{\221\016@/4J?8\246p?5\325\270>g^\273\277\025U\360?3\\\375?d\273Q?\005\264\202?\362\230a\277\355\024\n?+\270\021?\03660?\367\322\326>\255\277)?\005\335\241\277\327\252\335\277\362I|\300s\003\014\300\346\2049>6\203\325>\nM\372>z\000\026\300\222\2502\277\244\244\362>\374sl?\225\224R?\236+T?\300\226\335?\324\256\212\277\001\030\'\300E4\345\277\364L9\300\332_\004@\242\213\022\300t\362\213\277\333\351L?\316]\"\3002Vl\277r\226N>\251\351\260\2770\316r9M\233\315\277\273\242\220\277q\314\301\277,W\356\277\330\256:?\037\270P?KA\377\277\rq>\301\313.\267\300\323]\334>\2528\367>\223\332\000\300\225\233{>\351\317\004\300\322N\003?\351\204\346>\022F%?\026\257r\300\3067\010?\264\367A?\350\276\325\277\345\341\210?\365:\244>S?\354?\004\213\252>\245B\017?\002\'\212\300\001\302\267\277^\341\256>\373\274.\277\311\206\235>\252\317\301?}\203\255\277\\\326\311?N]\023@\355+k\300\234\247\222\277\224\325a?\346))?u\220M?\327\026\324\277Q\327\342>\250n\323\277\351_\344>\202x<?,sv?\351\263\247?W\243\316\277\357\276s?\321\276\010?|\324\020\301k\337\212>\215\313\267\2779\265>?Y\206P>\0261\337>\331\367\224>\0017\202?\266\003\010?\303z\003?1K\022?z!\301\300\267^\024?\222\362\306?\267\355\206?\277\305\006?\331\226\320\277:\034\355>\233*y>?\262\322>4\361\314\277\337\300\236\300\321\013r@=\3373?\236\254\304>\217\373\316\277T\020f?\307\320\024?\356\362,?P\024\'?\375J7?\263\014F?\310\007??`j\014\300\371k\325\277Z\0250?\342c\246\277*\214\203?\263\017)?\250rf\300\2724\021?E\276\311?\361F @Q>&?\3508\247\300q\024\326?zz/?\377Eg\277\326\276\251\300\234\277\267\277\232\013c>\327\304\314>~\331O>\3640+?U(\032?\214\031$?\242\204(?\0148d>\322\303\n?\024\226\017?\203\342\"\300T\367\344\277\357\310\375\277j\2361\300\217\272\205\277 \016\212\300{\027\255\277\247\026C?\035!\035\300\232\\\001\300W,\346>\265\213<\300\237-1?\265u\007?\016\331\211?\n\2468?\273\204\354\277\246\302g?\223\212\003\277x\311\335\277=\220\231\277s\227\000\277\351\341\362\277<\311\000?\254e5?j8\232\277\030\025\251>\345^\"\300*\177]@\336l\334\277\344\036Z?\t\351\371=\230\222\032?r\217k?09\306>G\341\271\300Q\000N?z\214\336\277\363M\221\277\375\364\030\277\331\017\257\277\372\327\330\277\205~??!\n\245>\237O\347>\300B\202\277\245\006]>\'\034\007?\304\036\253>o\245\271>2\334g?T@\024?\342\335\332>\021\302\354>Q\re?Y\354\266?i\230U>\233n\333\300H|Q?O\022\020?\261\314\372\277\225\036e?L5\332>\272\\=?\302Z\342>2%\177?\033\013\342>\r\375\324\300Z#(?N\272\304\277\323\'T?B\022\236?KH2?\230\037\232\277?o\"\300\014\373c\300G\325\371>\037U\361>\252\313J?!\245P\300\362\364\311\277\257H\004?\304k{>\021\356\340?i,1\300$I@\300\214\361\033\300\217Z\264\277\363t\t?\250\374\037?\224Y\272\277"
      }
    }
  }
}
node {
  name: "MobilenetV2/expanded_conv_16/depthwise/BatchNorm/beta"
  op: "Const"
  attr {
    key: "dtype"
    value {
      type: DT_FLOAT
    }
  }
  attr {
    key: "value"
    value {
      tensor {
        dtype: DT_FLOAT
        tensor_shape {
          dim {
            size: 336
          }
        }
        tensor_content: "\240\346{>\231(\033?i\244\r?\240\277Y\276\254\377M?\244{J?\023\345\223?>\270s\276\231\360o@\331\202\021?\322}8?z\373\270=\265O\266>P\242^@\036\246\302=h!R?\367!\007?\0203\025?{C\000@\300K\233?P\205\370>\232\274\"@{\326l=+\t\037\300\371\201\332>\371\352\253>\261\247\001@4\275\213?\263\261l?_\345-?_\305\000@\273Df?\244g\335?\347\'\004?u\277\"?\355\3152>\250$A?\375\352\n?X\322\037?\252`\246\276\216S\231\277Q\r\216@f<\266>\252!\025?\033U\036?u\235\311?E:\377>\033w\227>\236\206\312>\357a\220>\363\000t>3\365 ?\tF\"?(\356\246?oU\351>\002\260\016@\264\334\317>\036\321\272>l\347,@L\\\007?\263C\014?\'\001\247>\301\301\306>\246\362\026?\336wr@\002\224Z@X\377\010?S\002\247>\361\274\201>\377\232\240>\352\244<?y\016\342><\2757?A\357.?\363\272e?\274B\322?\302\252\354>P\362\016?\254\023&>%\365\026?\212\357\353?M\370\340>\027\007\332\277\022\361\014?\216\361R\277\024*6?\357\2573?/z\346>\251\370\323>\316\327\271?\222\032V\276\336\304\363>\274\035\361=R\374\031@\277\302\357\277b\317\362?\375E\315>D\206\304?\336\214\256>\353\231\213?\303\231\246?\212\255\300?\373\375\003@`\275\306>\300\227\020?\'\324\273>\027\213\357>\"\353\307>q\335\375?a\231\025@S\353\006@\276\323\026@]\003\222>\236E\270>mx\014?\"\210\005@\202p!@10\315>fM\231>F\207\031?\366\256%?\'?\351\2761\331\021@\242v\344?J\327\211?\034G\275?\351E`?\224=p@\276\302\227?\2020\017?\347l\272?\340\335\361=\361\026\241>\207Qf@{\227)>Q=\024@*$\006@\325\314\220?6\323V@s\231\305>\336F\021?X\352q@\340\270\357\276H\004k\2770\\\330>\222\024\330>\362XS@\305\307\226>\020\221\221?\0172\321>\365\356\275>\030\333\001?\276Z\236?\377\216\210>-S\217?a:?@\220\0214?\335#\236>\r\002\035>;\364\312>\207\353\342>\342\177\227\275\204\037\014@\014\341\234>\022\300e@\204\354\231>\035\215\033?8\334\334?\202\227\243=\2406\213?\234\177u@8\177r@n\301\033?\005v\003?O \030?1ot@N\327\342>c\177\207@\314\033\017@\277\020\367>f\273D?Q\017#?N=\003@^O\032?\232\323\320>\235\310*\276\345\215\223>\252\032\034@\257\034/?b\242\301>\260\305\306>-j\340>\262\374\031?\374\215\363>qt\343>>\335\311>\355\215.\300\211\345\021?\354\326T?u\036h>\373b\300>H\323\210@\003\260\n?\316\211\216>\324F\357>\234\013\342?X\330??\346N`@\\J\r?l\304\256>m\355\t@a\373\033?\320\371\023?m\'\017?F\353\014?\021\271!?\250d\035?\254\262\256?\376\344\231?\346\272\362?\226\"*?\341\203\002@\261Z\303?:\177\375>0V\n?\316$\n?\000SA?\250}\373>\006\372\007?\213\215m?@\231 ?\326\027\315>\313#0@_V\325<[\'\001@\017\346\245>\223[\274>\336\314}>I\\\002?=d\366>\322L!?\"\200\000?i\362\257>{\314^?N\255\302>\335\211d@\'8\275?J\007\232@\244\262\\@ \000t@W,\036?K\221a@B>\266?\237Of@b\316P@\303\030\363>\033\323\230@\274X\355>\220C\010?\372y)?2$\017?{\303\337>\222z\035?\006\352\336?\331\303\001@\014}\212@H\024R\274\246\025\336>}h\013?\207h\t?\036\257\253?\307\240v>\232\205\236?\356\361z?M9\307?\335Q\020?\245rb>\330\306\016?\tF\036?Up\271>3\341\211?<\002\352>\224p/?\212#\004@\004\320\206@\300\2421@\366\342\211@\223\314\353>\026~\003\276\001H\341>\023\206\203@\217\355\230>\022\201\324>\3124\237>\327O\346>\204\341\211?\004\r\020?\210\251\270>\340\260J\275\277\004\006?\217 \265\275\346!\237\2777\034T\276K6\016?\365\362\362>\220\264`?aR(?\027\231\351>\227\370\023?B\333\247>\222\376)?\274\322\002?\204\270]?\353:\262>\312\270\204@\223\324\022?O2\310\276W&\017?\364\"\255?>\206?@\342PS@\020\271\321>>\3574?\213]\022?\\\3057?\244\236\206@\000\261\305>\252\337\260>-\363\313?\317Z1?\211UC@.\025+@i\316M?\t\026B>\024\252\010?Z\225\365?"
      }
    }
  }
}
node {
  name: "MobilenetV2/expanded_conv_16/depthwise/BatchNorm/gamma"
  op: "Const"
  attr {
    key: "dtype"
    value {
      type: DT_FLOAT
    }
  }
  attr {
    key: "value"
    value {
      tensor {
        dtype: DT_FLOAT
        tensor_shape {
          dim {
            size: 336
          }
        }
        tensor_content: "5+8?%\265b?a#r?$\377\032@j\004\206?\275\355\207?\377M\271?\232\235\030@6\313\205?\013\374q?\303!\212?\370\237}?T(H?Nt}?_\032\272?,_\213?\024\251k?h\356s?\264h\252?\210[\334?\006\342q?\342nz?\366\204\227?\030aE@X\347\364?m\263P?\201W\263?\346\002\237?J\234\240?\211\210p?\265I\236?\223`x?\206\"\314?\262pd?\216\357g?\r\234)?\371\372\213?\343\203\003@\334xv?\227\312\222?\213\034<@\233p\323?~\005\205?\226.t?X\347k?\017)\263?\252P_?A\001l?\273\264S?\356\007I?/\221\037@@\237y?\223\036\202?F\341\247?/W_?A\325\205?:\343\220?x)j?\304R\207?\300Eg?\037\225b?\023\315T?\305\251B?+\002x?\\\252z?\274\367\201?B\277r?\265\211\351?d\202\327?\252?\275?\343eh?2\326p?\313vp?JFp?\r\252\314?\233[\254?>\031M?\260\231`?h&#?,\005\200?\247O\222?t\266I?\335\020\332?N\231Y?\263\200\261?=\352r?S\250~?\035g]?#\371\231?\377\216\221?\374<\253?\271\016\212?\3762Y?\333>w?l\274\331?O\344|?\263\340z?I\347\207?\335\025\221?\256\236\220?`\004\203?\313{}?\353\231\203?VqU?W\353\231?\267{b?\3566X?.\2078?Q\014\237?\275\n\221?%\000\375?\357\263x?\356.<?LUB?\321\335p?\205\321\215?\2223^?\032HU?\265C\211?\3342\201?\307\252\201?GA\261?\341\221\253?\372\351\230?\342\203\316?\376\223\253?\277\233\255?\244Az?\3429\314?\262\215u?Z(\244?Bo\347?\241\372c?6\nt?%\337\355?\361\330{?\020\370\267?\177W\324?S#d?\204\264\214?\023\372j?\225\254s?u9\016@\233\255$@\301B\\?\030\317b?7@`?\312GR?\272\324\262?\223\026b?| h?\033\357T?\001\235\242?\246\260\037?\230\357\203?k7o?\272e\204?\020\253K?\316Y\345?\233\374W?\320\nc?\360\245\344?yxl?\342HI?\371z\207?6\0077?\303\242\215?\205c\256?f\r\207?\026\266\201?L\"\221?,\333r?\363mc?\304\306_?\376m~?\003\334j?R&b?%b\212?@\030~?M*l?[\361\207?D\026L?k\223\247?\032\001b?\271Ki?\306\305\367?\324\361@?\347\305\213?\\\315z?\251\347\206?\361N[?\307\006m?\261mn?\336\240\220?\374\245\204?\334\230S?\037\325p@\365Hx?\354\007y?\031B\275?\361\223_??\001r?l~\213?\321\377D?\202{K?\366M\304?\301\305\264?\342*O?\024R\217?\313\375F?~%\246?\245\331d?\317\250d?_\036`?\324{[?X\354\203?\335\313o?\352\\\202?f\354\357?\212Jy?\364\231\200?\221\274\202?\206Ay?\247\216e?v\246\341?\300fv?HJ\205?\274N\266?~Rp?\260\326\247?\211\\k?\306\\o?_\257\222?\271v\353?\365U\226?\214\321@?\273\013<?\003,E?\340\266Y?\006\352j?\202\302\204?\031\353Z?\377\005V?\035\003j?\345\366\203?\\\250\206?\306[\245?Z\211\350?\254\272\200?q=v?7/\317?5\205f?\347/\204?\253-y?\014\337\332?\275\204d?\325R\274?\277JK?D\231o?>\223[?mft?d\030\010@\305Lr?\007W\031@7\225\230?\301Y{?<\242\345?\224\225\014@\2431\201?\\\210a?y@\376?r\212_?J)\241?\r\t\277?`[\252?8\036~?-\030 ?\363\370\\?\232\217\250?yeJ?\005\352\231?\2373S?4M\027@T\360\223?k\256p?\366\201w?\005lh?\302\245U?\003\206S?1\017P?\024\320l?\255\240K?\337\272H?+\003\'?f\225\216?B{\206?0\005\202?\261\353M?s\305r?F\237\\?\263S\313?\250\026\357?\232\030\030@\036\023O?&\377q?\217~\376?\276\000\210?c\341\261?\025\217x?\305\1779?\301\"s?Z\266\211?\"\342\316?\253da?S\324s?,>x?z\212\202?\310so?\310|\005@^7v?nCy?\362Xb?5\007]?\354\265q?\020(\307?\343Qk?\306\363T?\323&\210?1\373\213?s\306\017@Wb\214?A\324\201?\267\342&@\361\334\230?\r\306\215?Pt\253?"
      }
    }
  }
}
node {
  name: "MobilenetV2/expanded_conv_16/depthwise/depthwise_weights"
  op: "Const"
  attr {
    key: "dtype"
    value {
      type: DT_FLOAT
    }
  }
  attr {
    key: "value"
    value {
      tensor {
        dtype: DT_FLOAT
        tensor_shape {
          dim {
            size: 3
          }
          dim {
            size: 3
          }
          dim {
            size: 336
          }
          dim {
            size: 1
          }
        }
        tensor_content: ":?\005?\333\334\030?S\215&?|\024y?\272=\022?\020\034\027?W\257\033\277+m\305\277\"3$\277\231\032\037?6\304&?\3706\026?\360\371\004?n\355\000\277\177A\261>\300\021-?|!!?!\304\037?^\250\'\277Dp8\277\307P\032?\256\310\337>\232\033\005?\025\024\034?\026\301\333\276\017u\030?\'\":=\245`\005\277\025H,?h\001\021?\265\350\036\277\241\356=?\355\0140\277\205\230 ?\331e\033?l\001\353>\330p\014?\355B\030\277\323N8?\327\263\'?\001z\023\277n\353\202\300\247\321\034?e}\005?\205R$?bc\032>\177_\032?\376G\003?\235\033\022?\006\000\002?\037\000\261:\310\232\025?t\315\030?\224\033\014\277\276=$?+a\036\277\325A\023?\004\367\003?\305\210,\277\320\206\025?a\317\355>@\205\352>\261\202\026?\024\303\025?\222\337\010\277I#\030\277\204\264\027?(.C<\257\005\365\276\354\022$?\241\320 ?\224u\025?=I*?\224\244\024?\353\276\005\277\026\372\"?j\372#?Y\013\037?\177\236\336>a?\026?(\264\005\2772\341\016?\324Z\032>\233\362\032?\304M\326>E1\037?Z\016*?q\235\026?\023\345\027?D.\025\277y\305\026?B\270\037?X\261!?\264h\'?\312\027\316>\265\210\005@[\325 ?\n\321\004\2777\344\005?\352\254 ?W\240\035?\374\021.?\\>\034\277\0078\363>\321\246\037?\364?\023?\211\270\027?\342\255\032?\001\376\254\277\'\223#\277\312= ?S\267\376\276\034\270\032?e\352\000?&/\035?\276\n\031\277\306>\006\277\357\2114?n4\"?\266\226\036?\231\304\026?A\031C?\311@\034\277\205O\026\277\364* \277\340\307&\277~\025,?_\026\004\277\\U\027\277\312|$?\366S\377\276\024\243\227?\341+\036?\345\347\033\277.\325!<\204\027\010\277\257s#\277\360\251$\277\235X\365\276\022/6?\201)$?\234\300\030\277\233\204\335\276\005\242\033\2775g\005?\370\317\020?\262\225\010\277\316\263\005?6]=\277\001\236\031?\372q\020?;\245\033?\275\311\005\277\320\221\024?\315\0000?\231\353\017\277\351\303.?\003\332\t?\337\272\032?\332Y\031?}\237#?(\036\371\276:\341\021\277gr\024?\225M\024\277\266\243\016?\026\263-?\222R,\277\301xA?\234\332\004?\3516\026\277l\272!\277\263\245\337>\326\316\'?\257\020!?U\212\366\276\317\177\034?\265\2429\277\314\300\024?A\273\032?:N ?N\356\345>\260\215-\277\254\2144?\224\252/?\213\362!\277\327\343\035?\277\235\017\277\316\025\035?\n\211\025?\305\201\021?j\013\016?\220\257\026?\005\027\317>\216+c?x\325 ?\346y\344\276[\311\025?\224\025\032?\323\201 ?2\177\344>\3565\001\277h\276\005?\375w\035?\275\260\r?Z\2603\277$d\032\277z\220\016?\251\025\020?\346>\034?\275\335\024\277#\356\'?\336\345\035?\255\027\036?\023D\020?pZ\031?@\345\004?\363\311J?\201D\216\277\010\230\373\276$\346\024?.#\022\277\302\260 ?\367\206\026?C)\020\277~\363%?UY\001?\253N\016?{\351\035?\205\376|\276\354\366\025?H\371)?\375r\013\277Y\215\336\276\215\007\'\277N&\t?\323\177\032?\357^\023?ZK%?\341\226\034?\247x ?5\021/?\342\r\014?\371\325\037?\243H\013?\347\307\003\277\236]\324\276C\0027\300\213\263\010\277C\237\034\277\t\346\030\277\270*\016\277\222\242*?\301\211\017\277\200\004\361\277J\360\023?\230\337\325>:x\035?\255\246 ?9X\037?t]*?:\317\026\277`\313%?5\261E\277[\005\'\277\223{\021\277o\360\200\277\337\347)\277\373\205\036?\"K\027?\314\362\027\277\267\0251?\220\212\025\277j\245(\276\"\226\020\277\246\252\037?\247N\354>K\344\013?\221\337\037?\254\252\013?\332\030\000\277\034\253,?\220)!\277\236b\037\277\303\274\002\277\003\351\024\277\n\002\032\277\232\360/?\220\263*?\213\004\026?\t\352\037\277\321 \031?\014n\021?\307t\013?>\232\033?\005\362-?\020\036&?\264\227\014?\363p\n?\024\'.?\224f\016?Ch\005\277\367\323\370\276\223Q\033?l\331 ?e`\025\277\367\314$?\025\010\034?\346Q\r?\"\013\022?\360\346\030?\202!\016?\033\256\343\276\354A\002?4z\036\277\355\035\037?\362\'(?\350\327\035?p\256#\277\t\311\021\277f\251\026\277\331\353\027?\2011\030?\263>\n?\315\351\336\276\342\206\t\277\317\211$?r|\005?\225\220#@A\363G\277r\036\032\277k\256\002\277\337\324(\277f\263\014?\031\317\037?\340\311\"\277\177\341\334>\242\253\023?y\203\023? SW\2764<\t?\232\t\021?\246\372\004\277_\013\304\275\341#\r\277;\254\376>\252[\374>\004\032\020?9H\317>\214S\007\277\"\030\255>.2\034?!\202\004?}\021\t?\034\\\020\277\027E\020\277H\222\001?\030\035\324>\355\335\353>\030!@\276\025\324\022\277\336\003\010?-\213\277=\365\316\r\2774\351\031?\3227\004?\350\271\344\276V\004#?\333\263\n\277$\212\006??#\006?\000\343\331>\370V\365>X\335\342\276L\214\013?\305k\010?L\330\360\276\001\315\247\2765\326\005?+\304\034?\324\202\022?\306Z\255\275\n\310\017?\023\266\305>|\200\353>N>\005?(s^<\013\205\352>&\352\354>Xq\032\277\371\033\010?F$\017\277S+ ?q\366\336>n\332\367\276l\021\332>\3148\020?\346\264\325>H>\003?\315\020\003?6\343\n\277Le\006\277u\017\004?\210\325L<\242\303\017\277\026&\n?,\266\024?`\035\003?\271S\r?n\005\000?Z\320\027\277A\360\337>\250\247\345>\372\003\000?\371*\305>\275\270\016?po\n\277\271Z\007?\021P\030?jG\004?L\0257?\013P\t?\253|\025?/\235\373>\315,\000?\023\347\016\277\330X(?\361u\021?y\356\371>8\346*?\206\310\022?\250d\312?\234\312\366>\212.\373\276\210t\"?\303\352\030?\263\240\006?F\307 ?\025P\004\277\256o\324>:A\030?\213\010\016?@[\010?\244i\344>\360}\267\277\000\211\025\277\002\322\206?\201\005\024\277h6\002?\\\006\324>}\220\r?J\002\020\277\231\205\335\276~\021\025?\317\261!?\276\247\007?ee\365>\357r\323>\021\231\004\277h\267\010\277Rh\001\277\213f\n\277\tU\362>Y\267\014\277\224k\321\276\330\023\354>V\034\002\277\265\255]?w\257\351>OO\t\277 \252A=\230\004\033\277T\365\006\277\347(\366\276\207\243\362\276\031\312\013?\247\205\006?<\362\365\276\037\2008\277\266\'\020\277;\321\014?\004\272\333>\370\256\n\277\366u\373>k\313\000\277_X\000?\237\326\367>\216\003\021?A\272\007\277+%\027?\225N\024?=,\363\276+7\r?(\r\361>.x6?aQ\377>N)\357>\3661\366\276\2646\372\276\242O\363>\226\311\006\277V\267\367>\344\225\021?L\345\010\277^\254\005?M\204\022?\216y\027\277\275\320\020\277\260b\014?P=\366>\265E\004?\223\247\006\277\023:\001?*_\007\277\202.\r?\364\340\004?\273\372\n?\305(\010?L\347\375\276!\277\021?\346\316\002?T\352\030\277\211P\037?Z\225\365\276lz\031?\206B\t?W\226\366>\353\327\343>wa\262>S\003\r?\235\261:?M\021\001?,\373\325\276\256\024\366>A\345\374>\262\310\r?\342+\334>\277\002\017\277$\254\r?*\007\004?0\213\010?c%\022\277N\202\005\277\360\246\311>23\021?\2349\006?\267\322\004\277\013\234\022?\257\231\017?\345\374\016?\303r\324>\231~\360>h#\007?\215\263\021?b\307\220\277,\034\346\276\005\320\020?\237\243\005\277X\210\010?\226\364\005?#9\367\276\275R\340>c^\"?\253\305\032?\3076\022?\347\361\021\277\247\031,?\335\016\271>\037d\005\277\300&\034\277\201-\022\277tt\343>\314%\337>\352\000\n?\003c\312>\233\340\014?\020\305\005?\375\272\352>\023\353\355>0\377\004?R\333\376>&\322\030\277UB\"\277\266`\242\277\370\375\t\277.\232\025\277:.\013\277\261\323\026\2775\205\004?\270\n$\277.\271\245\277\026\223\024?\255p\325\276\365\373\361>\246s\016?\001\241\013?\270M\034?\274\253\360\276/\024\000?\367\355\307\276\251\316\003\277\306\225\020\277\223\004\017\277i\357\320\276\245\265\006?\222\263\006?T\213\001\277\356\037$?\257b\001\277s\n\367\276\007\317\316\276od\005?\2256\252>\n\313\004?\200E\364>H&\360>\325i\016\277\237\024\001?\266G\334\276\332\310\014\277\030\235\372\276\300\344\331\276!\234\'\277\221\025\335>g\316\032?\311\004\376>\221:\014\277\3134\371>\003\202\357>;\020\360>\027o\r?\236\232\003?\246\261\333>\003j\363>KO\301>\245\004\003?&\267\026?K\255\201?u\270\003\277\0006\004?\336,\024?\037\272\370\276\005b\030?\244<\334>\262\005\362>nV\006?%|\363>P\365\006?\354\233\032\277\276\367\003?[:\026\277Z\362\021? \273\372>n\361\001?ok\273\276\357\004\030\277\215\t\023\277\037\357\354>\222\271\022?\250\225\340>\331\005\362\276\206\036\016\277LO\341>\0230\274>x\210\216\276\311\373\033\277&\337\007\277N\252\014\277\177\357\327\276\26521?\365\362\027?9F\007\277\354\350\366>\353i\021?\2550\034?q\305\314\277\247x\006?\236\253\020?\215\251\022\277\242\360y?\324\210\032\277i\224\027??\201\032?$t\020?\225\312\377>\177&\345\2760i\023\300\230\220&?\0031\024?\200v\024?#D\032\277\233\335*\277Z\203\023?&\'\315>\315^\000?>`\\\277\264u\326\276D\030\020?\250`\334\274\017\372\364\276ei\"?\253`\006?\324X\014\277\352D0?\350\345&\277Xj\024?\"A\021?v\336\327>\005\310\003?d\266\017\277\213\2411?\022\330 ?n\177\007\277/\321\336>8\360\020?\036\212\360>\253\323\030?\201U\304=\343y\022?\246\220\364>4\330\005?L\346\343>D\250\302<_\341\007?w\\\022?(\256\365\2762\267\037?\037-\r\277\206\210\n?\3221\374>\263\272&\277J\224\003?\002\354\343>\251\200\333>\210\004\016?\261\014\020?\277|\000\277\270h\020\277\014\226\r?^\320T\2737>\324\276\026\212\"?K*\021?3=\014?\333/#?=\014\013?2\240\355\276?\210\026?\'\205\032?\332\003\030?\"U\332>\226\305\t?\223-\373\276l\235\002?\206o\035>\342\340\013?\246\210\314>B_\031?\217-\036?\204\232\t?s\330\014?U\244\022\277\236\323\014?\304/\024?U\300\027?@\266\026?f}\271>\ra\376?\235~\021?j\225\366\276\3612\354>E\t\021?\354\247\021?\370\335!?\210\350\014\277\321\364\325>\326\245\027?\243?\n?\233\031\r?\225S\027?\303\217\262\277\323\300\032\277\314\3078?\232\'\354\276Y\374\r?T\303\362>\322,\022?\260|\014\277\367\306\366\276*\267&?\"k\024?O\310\027?]A\r?\261ZH?\325\t\023\277/\307\006\277\247k\024\277\370\257\037\277<\316\"?5\334\376\276]\n\r\277\317+\031?F\355\357\276\361\243\220?\"\027\023?>\312\010\2776\332\003\274\317\007\000\277\302\333\034\2775\t\026\277M(\347\276\246e8?\217{\031?\255\346\024\277V\177\315\276\025F\020\277\200?\000?\274z\014?\r\n\000\277UP\002?Q\365,\277\377\007\017?\020\324\014?\207,\017?\377\215\372\276\200\323\010?\373[(?\352\347\005\277\206z\032?\357\014\001?\317C\025?\010]\023?I\323\030?\010\214\324\276\010\251\001\277\330\004\016?\305\234\006\277N\327\004?\247d\037?\275\375#\277\\vC?\272\"\357>\200t\010\277\241q\027\277\221\224\324>\321\006&?\375M\030?{\317\362\276\031\230\022?\312\177+\277\021\244\017?\343b\014?%`\037?\031!\325>|:!\277\363d.?\342T\"?\316,\036\277\"\352\023?\235\351\375\276Y\007\022?\215\310\010?6\273\013?-\177\002?\256\264\017?\354x\312>\357\034L?\343~\025?\361\376\336\276-,\016?\302\301\007?o\212\036?B\224\326>\372%\362\276\360j\362>\227\301\026?*\354\005?uG&\277\332:\023\277\246\372\362>\257W\013?\244\305\023?\305Y\n\277f\314\032?\362\343\024?\325\000\022?\036\010\016?\214\032\022?$C\373>_+:?\t\210\217\277\241\007\317\276\347\375\t?=\365\374\276\247\222\023?_\021\n?Y6\000\277\345\323\"?\332F\366>Z\350\n?2,\024?\224\210\\\276p\320\013?\r\000\034?~(\000\277\331\244\344\276\024\021\035\277i\314\374>\020\036\023?\357?\006?\027\371\032?i\350\021?\310K\026?4\301%?\321B\001?\r\246\027??\244\021?a\307\371\276Vv\274\276\325\2473\300\360x\001\277\004z\022\277\203\030\024\277\001\206\377\276\3626$?\345\241\374\276\366a\357\277+%\010?\020hw\300?\336\025?p\027\025?3\276\017?Xw\035?\254\320\010\277(\234!?1\2329\277\003B\026\277\032\275\004\277\335Jg\277\341I\036\277zZ\024?@t\014?\263\370\003\277\340x#?]\n\n\277~\036\272\276\340\317\000\277(\026\035?\366\255\337>#4\002?s\317\033?\352\337\375>\261\274\371\276\355\354 ?\334J\032\277\267)\016\277\304\203\352\276\244u\r\277\275\021\014\277\353\013)?a] ?Q\334\023?\342\272\014\277\340\214\020?h\321\007?\006\017\002?8\232\r?\307v$?Y\000\032?\315\024\r?6%\006?\352.%?\330\242\002?\311\230\'\277\355{\341\276\237\253\r?%\003\027?Z\233\006\277\276\357\027?\302\210\024?\241\320\375>^\344\010?\220\005\r?\351)\n?3\223\316\276Ej\372>\331\211\024\277\245\204\024?\372V%?\002Q\020?U\243\037\277:\346\005\277\3242\022\277,B\016?\304\310\020?\323Q\n?x\247\311\276az\374\276\236)\035?\206\272\001?6j\"@\335\2207\2770T\023\277\\\232\375\276\333|\031\277\"~\371>\235\210\024?y\337\027\2776g\001?7 \031?J\244\033?\007z\220?\036\273\030?9\271\034?7\303\001\277\206DB\277\366\331\031\277\314\277\017?\265 \030?-\233\027?l\256\360>\331w\023\277)]\320>\312\033.?\302\243\022?\330\t\027?\221\376\034\277\335,\025\277kR\004?\035\352$?]\341\036?\0164(?\004\033\376\276\231l\014?)\253\246=\"\323\t\277\327\302\037?r5!?\344\'\034\277a\3260?s\244\034\277@\243\020?\366d\003?\322\327\347>\005\212\022?\321\304\266\276\024%\010?\t0\372>c\253\001\277YV\022?\214\360\021?\010\260!?-\003\023?\305Z\365>#\255\t?X\021\007?=\205\007?/\230\014?\243U\000\274\211\016\007?\262\236\027?\t\373\347\276\265u\005?\271t\014\277F\033.?\236\355\333>M\372\006\277\206\277 ?U\352\033?\354f\376>\267\345\375>\250\317\006?\342\255\033\277\244\361\017\277\225\346\024?\363\366:<\2605\027\277\245\250\006?\306G\031?\222j\032?!\310\024?\333\267\026?\346\231I\277\\2\"?\311[\032?\273`\006?\374\007\333>\313&\033?:\350\n\277n\362\022?\345j\001?\377\307\013?Y\346\020?\231\001\005?\027\017\006?\"\345\006?!\001\n?|\002\022\277V\237<?\201\027\032?\234\300\000?\21639?\251\341\020?\n./>\301\323\036?\372p\354\276\033\362\032?N\355\031?\366\336\013?\033\201\"?m\202\003\277@]\036?5\252\026?\314\327\014?\013\\\025?\312~\027?\004b\212\276v\212\031\277\021\222\201\276\001\202\021\277\213F\022?\207C\337>]\233\014?\360\330\030\277\257d\365\276\242\226\016?U\212(?\267\002\001?V\353\010?d\377\001?a<\007\277\234/\023\277a\327\t\277\321\250\365\276\372 )?\352\200\023\277\233\230\345\276\323\204\006?\371.\373\276\202\331\001\277\351\002\n?\3369\016\277\256/\234\273SL\r\277RT\022\277Nh\354\276{\254\021\277\200\360.?\344\346\034?6\230\002\277\210p\005\2775\306\013\277\216&\n?V\277\021?\207\212\t\277\243\017\003?a}\353\276w\324\000?\261\005\004?\272\013\014?\322\321\007\277e\020\035?\256\333\031?5\220\030\277\304\325+?\376q\346>Xe\t?\370O\020?c\237%?l\220\377\276\'\331\n\277 \356\r??$\"\277\245p\361>\007\\\031?;=\007\277\033\371\330>\370L%?\360Y\034\277#\262\016\277Ug\031?Q\035\002?\370\337\003?\037~\014\277o\214\373>\203Y\021\277\315V\021?\020M\024?\342\n\016?\372\340\r?\007\235\025\277\267^\t?\022\267#?\020\344\034\277j\234\r?y\245\006\277,o\034?>\246\t?7\'\373>z\354\377>\301\001\036?\020(B?\nf7?\312\316\000?\275q\367\276\324\025\027?\263\331\020?*\347\013?\327\322\020?\030\333\035\277\331\254\027?c\345\033?_\272\004?SD\035\277\t\236\001\277\016\231C?bm0?ni\376>eG\001\277:\331#?\221p\022?\240s\025?_\347\006?\265\024\373>\223\245\n?\277\333)?\341r\022\277\221\355\016\277-\254\022?\302N\016\2776\217\013?\273\310\003?C\266\026\277N\216\027?\36030?\224A\005?\210J\030?\321\033\026\277\243\256/?\325V)?\303\"\006\277X\206\016\277\253\263\027\277\250\323\324>n$\007?a\217\022?\002\020\034?z/\016?4=\022?5X\037?(\254\361>:\305\026?~\254\002?\223A\'\277\370\230\033\277\352A\242\275\221\263\024\277\267\377\035\277\224,\004\277&?\020\277I8\r?/Y\024\277o\007\301\275\331\211\022?\212,\200>\007\310\372>\2433\031?\312\026\021?\005g ?\371{\334\2760\220\030?\307\304\307\2762a\007\277\322\252\023\277\362\324\017\277\301\036\361\27648\036?\365;\n?\251\207\014\277\007\234 ?\251[\376\276>D\376>\377\362\010\277_\226\003?\364\342\312>\350\213\027?y\272\031?\317<\010?\305\201\020\277\330\365\025?\'\271\004\277wh\027\277>\360\013\277\365\002\021\277\273\344\025\277a\253/?\277\371!?\253f\375>z\340!\277\231Z\021?v\023\016?\360\307\365>\034\006\023?bC\003?y1\035?Z?\022?\001\264\344>\036\264\002?\366\035#?\244\314\217\276\325P\366\276\034^\006?-\211\031?\002\306\006\277ld\031?u\227\021?.\266\374>i\211\376>\220\367\014?+\263\021?\362\025 \277\223Y ?\367\334\016\277\344\274\002?!\364\342>\002\324\017?<B\007\277\324\002%\277\221\205\037\277\332\253\020?\036M\032?\375O\000?\004\022\002\2770\216\036\277j;\n?\325\333\355>\256\344[>\335\376\027\277\257\037\030\277\201\374\022\277\221\003\326\276\007\211 ?\224z\017?`\312\020\277\007X\273>f\276\001?k\006\375>T\340\341\2768\025\n?\262E\r?\210\205\275\276GPl\276\242$\374\276d\220\305>\316\212\312>g}\371>\340r\247>\002v#\277m\220\253>!\240\n?\306\203\355>\021\356\360>\037\274\363\276\325|\215\276L\241\316>\227\342&?\032\024\262>\277E\253\276\322u\005\277\343m\370>\006\036)@\324\320\000\277\227a\005?\225\223\007?\233n\267\276,v\007?\227u\250\276\210n\312>hG\333>\236S\310>\3575\023?_7*\276\370\017\261>\216f\251>\216\177\316\276\321s\252?\243\357\342>\224\312/?\334\243\005?vW\272>(\267\346>\231@\237>u\'\310><\026\023?\352\324V=\022B\361>%-\324>\343\006\006\277\250\370\251>\317w\336\276\306\355\026?\021J\242>\253jo\276/\332\321>,\226!?a&\335>\272\332\303>^#\314>\205\330\017\277\017k\360\276\t\273\000?\244\307\206=\236G\006\277\371AR=p-)?\312\272\361>P\t\001?.\252\366>\305\0302\277\336\233\343>\357\210\322>_\341\241>\223W\270>G\236\010?Z\027\020\277a;\001?\254\3640?\220\032\335>\355\273\032?\265I\253>\263\343\333>\327\253\321>\000\031\334>l\n\376\276\263\230\022?\r\341\001?\230E\231>#\356C?\343\356\347>D\027\021\275\3142\342>$\347\322\276\202\307\025?|%\026?\351\305\324>:\033\005?;N\302\276\243\337\360>\366\372\007?P\301\376>\305b\376>m\022\270>\264\250*\276}R\343\276\205l\017\277!\365\'\277E\313\326>\302Y\240>\010q\342>\315}\361\276 \361\257\276\223f\321>\234\247\021?\241\250\276>\227\354\321>A\264\037\276\261\261\314\276Q\337\024\277-\311\247\2765V\236\276\311\021\316>7\335\014\277x\2110\276\307-\306>\306L\t\277\345\227\017\277ZG\310>\317*\316\276\260%2=+\013\n\277\350}\303\276\005\263-\276\360U\007\277.\254\333>\177A\366>\337-\237\276QG\n\277\366j\312\276x{\357>\231J\242>\300\351\340\276\277[\337>\243;\221\275\231O\257>xo\342>\350\312\344>2\036\360\276J\023\332>\036u\347>\235\354\254\276oz\365>\372\202\277>\250\307\374>\366\342\321>\274\222\335>\233\253\003\277\003\205\323\276\267\204\316>\270/\037\277\314\345\225>\314\274\366>{z\211\276\314\270\223>\335\2670?\375f \277\253\302\373\276B31?M\325\232>\325\031\272>\256\372\003\277e\251\342>\360F\254\276\"O\007?\033\241\337>~\361\331>4\230\003?B\245\253\276\324I\271>\026\205\337>\026\315\377\276\"\r\312>\2436\310\276e/\026?3\313\351>\204\247\304>\266\236\330>\236\037\257>\332\233\013?\267d\020?|.\330>\220l\337\276\2555\346>>\233\377>\230\310\352>q\027\347>\376\0167\277\213\240\006?/\250\352>\224\343\300>\225\335\347\2763\314\276\276\027J9?Y\213\017?\364Z\352>)\002\230\276N\262\014?\316\302\343>\235\"\372>\343\351\255>\377\334\260>\342\271\020??\335\365>7\"\033\277\357\310\006\277z\372\t?\232\207\003\277\377\303\350>p\312\303>2T\256\276\306s\267>\034b)?83\276>\250D\004?\244\372>\277\206\3442?\002\325\234>\211\206\017\277\207\314&\277\305\337\375\276}\232\266>\014\361\271>\211\356\002?\262\311\276>\315\253\331>\031\177\347>\362\322\301>\035\206\267>=\307\341>\356\321\317>\037{+\277\260v\024\277S=L?\207s\016\277\335\000\022\277\333\210\353\276pn\"\277\201\303\237>\216\371<\277\313w\343>V\030\355>\374\236\302?\230\374\314>\030\235\362>\372<\365>\n\276\024?\250\366\027\276\340\306\276>~\352]=\363\r\264\276Vo\010\277a]\"\277>\306-\276\364y\307>\300\036\346>\317\364\355\2768z\r?X\036\265\276d\274\024\276:\271O\276Gg\255>\017\243\207>^~\000?\177\320\217>_\246\360>w\330\036\277\177\273\316>5K&\276-\334\010\277\267\356\370\276\341s\256\276\306\227\033\277\222=\327>Z\205\016?\360+\306>\234Q\027\277\376W\306>\022v\320>\364\333\312>\364_\003?\343l\241>\333p\221>\327\370\303>\344\305\227>\241\300\271>*\225\005?_O\203?V\334\326\276{\245\000?\263}\016?\374\202Z\276\025\245\002?4\336\250>\304\317\242>\277z\345>\265%\335>U\347\370>uK\020\277w\354\004?p\351\000\277\375\251\363>f\343\207>\035P\330>\246v\211\274\212B\t\277\017\016\330\276\356\331\324>\307\010\023?Gk\252>\377\240\340\276\320~\036\277\000%\224>\2145\214>\320\306\276\277\355\2405\276)I\340\276\322q\006\277\013\"\234\275\214\235 ?\021\037\002?9\300\274\276\220\264\354>\301X\022?H\340\022?\247\211E\2776\027\r?\242\342\023?M\371\000\277\t\220\234?\351\212\025\277\301A\022?\351-\r?\2770\025?\207n\352>z\302\005\277\365<\335>\300\345%?\323\036\t?[\035\014?~\350\021\277G\221\010\2771\362\001?\271\026\013?k\310\033?T^\335\276\262\360\376\276\357#\010?\237\255d;\r\375\003\277_\375\030?/\256\030?\032\320\014\277\320\307(?\177\360\032\277]\325\t?c\204\004?\322\226\336>\306\300\021?\300\016\260\276\220\373\000?\021\022\353>\034b\376\276u\231m>cy\n?>\360\024?\276\036\t?\007\362\370>\007:\002?2\305\377>\205b\000?\244\376\007?\005\n\344<6\320\004?\364\306\022?<\350\354\276\010\216\370>\\\231\375\276W\302\"?-\242\323>\334%\006\277\025\317\032?\274)\024?\364\000\364>W\361\360>\031\364\004?\2067\024\277\264\372\014\277\342\366\013?\022\342\230\273\021y\r\277q0\010?\213\223\016?\303R\020?\202\303\010?\367\023\r?\021{>\277\317\024\027?\036\376\023?\320\363\000?\317\361\324>\265\326\023?\333\235\006\277\334\214\n?\300\370\376>*\372\003?\304\207\003?eF\001?iR\003?zI\367>\356f\004?C*\016\277\340\241/?\320\304\021?vP\376>~),?d\t\021?\230\221B>\270Q\024?{\252\344\276I6\030?l\343\017?G~\006? E\031?\275\211\372\276\366\365\024?\346<\026?\347G\010?\204\361\016?\311~\023?\327\367\211\276\242\275\013\277i\360\202\276\266\362\016\277\336\264\n?\263\327\322>;\024\n?%\007\024\277\200\370\335\276/\251\001?Fl\034?\016\250\001?\363\361\000?\331\025\377>\374\361\003\277\323\220\007\2778}\004\277\264\253\354\276S?\035?\026\361\020\277\027v\340\276V\367\005?\330\251\363\276\220T\372\276\336\275\007?\316\352\001\277\243X\362\273\224k\010\277mS\017\277\035`\350\276\255M\010\277\t\3464?\207z\017?\357\020\364\276\257\200\010\277<\343\006\277\303G\010?\370\221\024?A\014\002\277\320Z\001?k\264\346\276\334E\367>\236\253\004?\273\366\004?|\277\366\276\365:\026?\007\275\023?\357\200\020\277\002\321\030?\317\002\345>\033\313\003?e\036\016?\345\324\026?Cd\362\276\326[\375\276>\306\014?\2474\037\277\003\203\331>\236\244\021?)\201\007\277\250\215\350>\204\262\035?\007\321\022\277B\033\t\277\363Z\022?)|\007?\'\314\001?\3772\t\277\222\034\362>\201H\004\277N\270\r?\007n\n?&p\016?O8\021?\367\313\013\277\031k\005?\300\302\033?\242|\032\277~\025\t?G\316\373\276\200t\026?\200\321\377>k$\010?\345\336\371>\277\346\030?}\300-?\207\027,?\234~\000?8\346\364\276\245\337\016?\200\317\010?_\312\016?\244\217\014?F\311\030\277G\000\014?\243\344\022?\310t\002?\330m\026\277\342\304\357\276uu1?R\362%?\302I\366>\212\201\367\276\210\271\032?\031\373\026?\256\024\017?|\010\374>l>\365>\237T\001?\236A!?b\350\371\276\352\310\005\277\204)\t?\301\347\006\277a\034\006?\r\325\003?9\345\t\277\347\233\030?\225\303$?Zz\000?\203~\027?\366I\025\277\344\250#?\274H\037?3\345\001\277D\205\007\277l\215\022\277\331(\327>R\035\001?l&\t?\007\'\023?d\233\t?\243\371\n?i-\031?gd\334>\272\243\020?\315\003\001?+Q\034\277\320\024\024\277\375\225v\275\215-#\277\322\r\022\277zx\004\2771\363\021\277A=\005?\360\013\014\277X#\324\275\215\234\010?\272@&\276\244\321\361>\254\251\016?\214\026\007?\266\253\037?\265\363\314\276O\027\023?>\207\305\276\351 \377\276\034\033\016\277\020\232\373\276g\347\350\276S:\021?\230\211\003?\237`\t\277H\363\023?\266\032\366\276\222p\271>\337\200\010\2776\256\003?_C\306>GT\r?\326\302\031? !\372>\361\362\014\277\340R\006?\010\254\001\277D\201\024\277\262\003\003\277\202@\013\277%\r\004\277p)$?6\177\032?\236\241\366>\342\345\030\277\311}\013?@\206\010?\276;\352>\245e\016?\265\227\004?\334\006\026?\366\024\020?\342\314\327>\037\333\366>1\370\032?\245\310\360\276\275\262\353\276\307\034\376>\2117\024?F\222\362\276*\366\r?\311\236\021?]\236\361>\000\010\371>\274j\006?\2539\016?.\224\023\277\247p\026?\345\177\013\277\356I\006?\"B\340>\020\\\007?\365s\005\277\002\337\025\277\342\267\026\277H\377\013?x\311\020?\221\013\376>k\035\002\277\031[\027\277o\027\t?\256\323\353>\320\310\222>\266\343\017\277Op\n\2773*\r\277\tv\313\276\007L\032?\222;\t?M\032\t\277\275i\374>\375\236\r?\227\033\024?/\013\213?}\t\024?1\311\025?\001y\021\277\001\345\270\277\245\t\027\277\261\274%?8\276 ?\\\250\r?\001!\005?G\325\377\276\\\244\001?\026j\002?\236\232\033?\203V\035?!\376\031\277\'\\\033\277`n\021?\206J\037?\202\231\021?\302\204\036?\032\321\274\2762|\374>\027V\250<\354S\372\276\301\034 ?\007\211\014?\001\360+\277\233\237:?\000\356\032\277\206\277\'?\204\003\013?\013m\304>\203a\010?\262L\020\277u2\'?\337\322\023?V\357\022\277\327\216w\300\246\032\037?q;\014?B\370\356>%s\270?\225\243\021?\'V\343>,\332\024?\021\250\360>\222T\363\272T\252\013?\326Y#?\276\217\344\276\031\347,?r\366\023\277\314\035\000?\n|\343>\000\325\'\277gU\035?\246\035\377>\025\266\006?I\315\006?\001\237\027?9\017\n\277\024\252\n\277\256\350\014?\235\240\214<\324\020\355\276-Z&?Yj\376>+\306\r?X\266\034?\211\177\026?\324\002\017\277\3476\r?\246\240\017?\010\033\014?\337\375\323>C\246\022?G\351\310\276\353R\021?K\274\032>\3329\375>*N\340>\201\351\024?\213A\006?\306\005\014?\372z\002?<\261\004\277D6\020?LV\016?\305 \023??I\357>y\262\317>1]Q\277\240\326\035?Z\330\364\276\367r\022?2\216\005?;\346\024?v\272\002?=\006\020\277q\216;?\311$\022?n\220\022?G~\013?m\371\035?\031\246\217?\374\033\032\277\377\342\305\277WK\331\276\303\\\027?\327x\364>f*\022?\255\016\010\277\\\t\013\277]\215\006?\322N\010?\024\207\n? ;\t?7\303k?\240z\022\277a\014\027\277C0\032\277\366\370\021\277n\311&?\331\350\013\277\234U&\277D\257\t?Dl\340\276\341\026\247\277\203\261\034?\351\355\027\277\334\325\020\273#\344\360\276\202L\035\277\336\235\024\277!\322\020\277\245\314\033?\333C\021?\203\213\'\277\302;\302\276\3442\013\277\204\276\004?\262\022\022?\023\235\000\277\335\020\365>8\251\025\277C<\366>}\333\021?]a\020?\201\233\014\277\345\000\022?\3643\030?\210\"%\277\037)%?\034\252\345>\270j\010?8\231\t?\023D\033?\020\372\364\276n\225\013\277\336^\n?\333\335\033\277Fh\355>X\230)?1\350\r\277\035\304y?>\305\n?\364\"\016\277nm\020\277\257\347\003??F\030?y\272\005?i\334\r\277\020\352\t?xa\022\277\244\235\r?H\375\016?7?\032?\273\315\003?\314\237\035\277\373\375!?\203\024 ?+q:\277zJ\000?\244Y\343\276\227\315\n?\367\236\004? \253\t?\t\312\006?\2540)?\356\032G?I\215\031?h\n\020?\321\274\334\276X\325\016?\t\035\027?\350\200\021?\235|\025?\270\243\376\276\225\021\007?8\323*?\362\020\000?\241v$\277\363\377\024\277\022\354\213?U\373\025?\215\344\004?\262$\013\277\030\226\n?\033\301\031?\207@\n?\031\241\014?l\331\026?W#\361>\006\0012?\367\200q?.\356\000\277\337\032\013?l\003\017\2777f\t?\024v\016?\354\263\034\277\345\032\036?a\356\010?[\366\001?\024\002\t?\254O\225\276\334\330\377>\236\356\032?\266\211\n\277`s\304\276&\221#\277\'\253\351>/\025\025?*\310\t?\2760\013?c\207\026?\344\t\r?\367\364\034?\246v\n?\235X\036?^\273\024?\222\200\002\277\013\363\002\277\316\236??\222)\004\277\246\213\035\2773\r\360\276\3179\353\276\004[\026?`\333\337\276\206T\226>\277\001\030?\317\261g>\310d\025?\030\230\033?\027e\024?\334n!?D\352\034\277W\213\032?L\021.\277\365\274\023\277\367\203\003\277\320\201\242?\014\236\025\277\201u\033?\276Q\021?\343\337\024\277,~\375>\351\307\n\277f\024\361?\205\303\036\277\337\350\020?h\275\325>\215\254\030?\213\321\027?{\023\003?)H\362\276\263\030\"?\343R\032\277\261<\r\277{\315\n\277\334;#\277\000K\371\276\344\000\014?a\356\"?\252-\022?\372I\006\277!\376\023?\272\352\023?!\267\001?-\336\021?_t\025?/\025,?\211\332\017?\225\373\027?\233\025\022?\334\270\035?\347\274\265\276\023@\316\276Y\310\375>r\035\003?&5,\277\246\314\033?~\264\"?\226\317\r?\353\375\356>\221\320\033?\377\221\005?j\010\026\277\202\315!?\334\027\016\277w\364\021?0v\013?\346\016\024?\274@-\277LV\031\277\265}\007\277A\364\023?jE\013?x\354\031?b\240\022\277\002>\013\277\345\247\016?\321>\r?E&\305?\273\3602\277!\205\030\277]\023\023\277\275v)\277\231\343\r?\332p\024?Y\347\035\277\300=\350>\022|\n?o1\014?[\255\315\276\263\223\003?^U\014?\306X\377\276]\253G\276\366?\004\277\360\256\006?\200\270\r?jo\023?\373\301\314>\3768\021\277>\240\333>u\354\367>\324\037\013?\210\303\004?Rl\021\277\3674\375\276\221\356\372>_\210#?y:\352>\326\263\314\276\325\022\025\277;0\367>\035$P>?\037\005\277\353O\005?\234T\002?\251\345\002\277\325\255#?\326\217\002\277\032\246\006?\254\362\342>z\257\275>7\r\000?\312W\311\276\302e\327>z\211\377>-0\326\276Ae\'\276\264\250\014?\270\005\016?Wc\374>}\362\226?Q\303\372>\265:\252>\305*\361>\311\226\004?\271\217=\273\037\341\366>\013\336\004?T\336\317\276\336\000\371>\325\301\377\276\331q\033?v@\300>\024\241\344\276\226\231\306>\257r\021?\355\346\357>\014H\325>v\005\n?\316\331\n\277R\337\002\277\275\305\367>{\306\314:\371\007\n\277\341\327!?\311\205\353>H\300\351>\223|\006?\243\253\375>\024\"!\277\341\233\337>\371\311\341>Y7\270>\331p\277>\250Q\006?\303\013\314\276\024\201\006?\272\255\"?\003\333\336>\250>A?\020$\353>\303\321\333>\356O\001?i\005\344>1r\006\277\321\257\037?\370\346\355>(s\313>p\037\010?*u\022?\2309N\277\351\005\366>6\212\325\2761\0002?\225Z\021?{\201\013?\302\374\016?\357\034\355\276\030\037)?&\360\026?`\263\020?\246\t\005?\261\267\367>\021\326v?\220\232\010\277\304.\032\300\322\370\r\277\272j\376>\025\005\315>\322<\000?\311\370\003\277\352\022\355\276\213\260\344>\352\275\007?\177\360\356>\033C\313>\325\210\021?)|\000\277\226\343\r\277\"\230\376\276\022\260\323\276\0348\327>^\223\021\277S\330\351\276\371\221\356>\351\231\007\277\201R#\277\330\231\010?+\305\n\277@~t\273\2137\020\277\272\213\002\277\002\272\345\276\344>\r\277S^\301>\006\003\000?\317;\364\276\037z\"\277\331\234\014\2775$\003?.P\311>\004j\362\276\006w\344>\026\'\336\276I.\325>!\350\361>\261\225\004?$\227\000\277\366;\"?\347\223\004?\266\035\001\277\323\n\n?ZV\306>\020C\035?\013\335\367>\260\365\017?\242\242\006\2776|\353\276^\\\371>\335\036\034\277{\322\254>\264\355\025?W\351\352\276\373\322+?O\\\033?\311\235\016\277\274F\000\277\267- ?-\251\365>C\254\340>O\356\016\277-\225\365>Q\206\307\276\016\215\006?8W\341>1U\346>I\000\037?\252\330\327\276)&\364>\254)\004?\371\271\021\277\337P\001?\374\334\374\27612\006?\307;\364>\235\250\376>\245G\347>t\340\016?\203/5?\033\361\022?B\307\004?.\351\334\276\255\t\344>Ht\003?\360\374\r?\376\024\010?\207\323\016\277\227H\005?\245\036\016?\353\223\335>\352\000\014\277\036\344\021\277\364z\211?4\371\n?\315\203\351>\301\013\343\276\235s\376>^\275\013?tY\006?;~\334>\367\225\357>?^\002?+c\016?r\026\272?\3758\370\276;\366\005?\023v\014\277;\317\000?;\356\367>W*\005\277\254\032\324>\013x\033?5\336\375>\032\351\004?\310\2207\277\244\300#?\304\243\310>\316\335\370\276\324\365\r\277\0036\"\277\341\305\312>\372/\353>Nh\376>\370\303\345>\016X\350>\350\205\361>\354\337\343>]W\354>\253#\014?j]\t?+9\020\277\272\333!\277j\000:?(\315\020\277o7\024\277\356\351\300\276\323\034\006\277\324\273\345>\177\342\022\277\242K\361>kP\373>YR\200\276\316\226\374>m\026\007?\177\215\010?P\232\r?\263\023\331\276XC\346>z\027\244\276\242\311\345\276)\215\001\277\306a\210?\2207\314\276\343\307\010?<E\000?\316\326\013\277\001s\373>-I\354\276\243f\212?\217\353\t\277\305\013\365>\257\346\231>\230-\n?w\220\261>\315\206\357>*\255\021\277\014)\371>\315\006\377\276\217\031\016\277,\371\001\277p\004\362\276H\001\014\277\241\\\315>J\331\033?\226\212\000?\232\032\007\277\200S\004?\353j\376>\307,\363>\214#\005?o\313\356>R\262\314>\tT\336>\267R\355>\010\004\363>\032\360/?B\260\205?w\315\023\277\267\203\364>1\227\373>\251/\002\277\314H\024?\010W\367>\204\266\367>\267\361\372>f\223\000?\020\352\006?\\\340\'\277\360 \037?4\002\023\277\353\241\006?\324\027\310>\246{\345>\303r\362\276\264=\021\277\rJ\020\277\306\333\366>\357j\002?\177<\365>\370\265\n\277vX\014\277\360\215\247>\362u\315>Q\311\005\277|\212\021\277G\353\020\277i\031\006\277i\330\336\276\252/\037?+\267\021?\223)\006\277\257R\363>\326\017\003?G\245\n?\022d\277\277\262\031\n?\362\363\016?\022Z\007\277\362m|?(\263\017\277zG\027?\247\361\030?\242\311\013?\313,\002?\270\243\366\276\216\243\365>G\003\353>\017\250\024?\224E\021?t\243\016\2773\252\021\277F\237\013?\251\216\020?\363\341\014?ls\024\277\300z\266\276\363\253\356>\272\237K=41\341\276\'\360\023?\177p\377>\253\254\033\277A4-?p\377\022\277^\022!?jy\007?Z\n\276>9\376\004?k\365\010\2775\345\035?\324\324\013?\206$\t\277S$\215>\227\330\022?\226b\004?7?\332>M\337\265?\036r\006?\352\232\323>\274\323\t?\274x\344>\254\323Y=H6\374>\361\206\032?s\204\331\276\200\334\037?\346\371\371\276\036\223\371>\251\t\332>\244\245 \277\207\213\023?\237\342\363>\201\217\373>\200\231\371>F9\024?\305\244\000\277\037\365\006\277\240l\004?\017\357\302\271\345Y\341\276t\365!?\215\335\357>\214D\002?o\033\016?\341>\007?\217\230\365\276u\356\375>\205\226\005?\344\352\002?4\351\307>\315\035\006?\256i\305\276\235\356\004??\241h>he\346>}E\333>=\024\017?\377\036\003?\257\036\t?\250\300\352>\205\267\365\2764\377\006?>u\005?\226\016\014?[\330\335>\254\305\330>dBD\277\'o\020?3C\336\276\300*\005?\3166\371>\320X\007?\335B\363>\373\336\005\277\024|1?\235\357\006?\022g\010?\372\267\000?\230\367\032?n\034\212?=\352\021\277\254\203\341\2770&\334\2767\224\010?\203&\337>D\260\007?k3\363\276J\215\005\277\032\275\355>\310X\370>\276R\002?\357\214\001?1\263`?\206\262\005\2770*\005\277\232.\024\277\034b\003\277\214\260\030?{o\007\27732 \277\274[\003?%V\330\276/d\227\277\207x\030?\222,\014\277Q\177!\274\201\216\353\276%\036\025\277\024V\r\277\002\231\005\277W\311\034?\335\254\010?\260J\035\277\316\353\275\276a2\370\276JR\376>\255\223\017?\304\310\350\2765\335\344>\006\021\020\277/\363\347>_d\013?\023\240\005?\202\005\366\276xc\007?\2129\014?!\253\025\277\335\367\026?\221\350\341>x\255\010?\302~\001?t\272\020?\2504\337\276\222 \001\277\313\332\002?\215U\022\277\346`\316>\021\252\035?<\217\000\277\234\006i?\021\005\006?\261\244\000\277D\007\004\277\037w\373>T\300\026?\270h\373>\323Y\007\277@\331\377>T\241\006\277\340\370\010?i\014\t?\271\320\017?Ny\004?\205\352\021\277\202+\031?\r7\022?m\004;\2777\243\352>o\r\323\276\336x\001?\3610\365>;\317\006?\003w\371>\307\376&?\376\020<?\327Z\020?\005\016\t?\302n\323\276{\306\004?\010\221\013?1\275\020?[W\017?\021\001\345\276.\357\000?\330\031 ?\315\333\376>\002>\032\277\253\261\007\277\343\230|?r\366\013?\322q\001?\014\340\004\277+\306\003?\016\374\021?\264\355\376>-\216\001? \217\016?\033p\330>\257r$?uEj?\2641\355\276]\347\000?eD\010\277\016\206\001?\355\031\001?\326\001\013\277\0250\027?\223\002\364>8\240\377>S\324\007?d\026\233\276\245\222\353>\036\025\013?\210?\005\277\\\r\272\276\326\201\034\277\332\217\345>\355\256\t?\300\307\371>\275\350\002?\373\324\n?\226\340\002?;S\r?2\205\373>%\233\021?\363\337\013?\266\203\363\276\215\266\351\276\312Cb?\016d\010\277\235\332\024\277\263+\366\276[\277\346\276\312h\016?\321J\327\276\237\245\243>\3573\013?=\353n\300\027\255\t?\317\313\016?r\225\010?\035\035\032?Ox\024\2778.\025?\231\205\"\277\305\375\010\277\364\251\372\2766#\232?\031\006\n\277\260\240\020?\363F\002?RX\024\277R\222\342>\276\364\000\277`\347\002@t>\030\2773P\023?\320O\304>\214\364\r?R|\031?&\374\361> g\334\276\016\345\021?\345\253\020\277:w\007\277\347\270\375\276L\016\030\277\273\335\340\276EE\375>\263\374\036?3\312\r?\272\211\375\2769e\016?;|\010?\004B\365>\360\314\013?S#\024?\233\344(?BC\006?\037\362\r?\2262\017?\366W\032?\343>\367\276\024\r\304\276\271\"\357>C`\354>=\203(\277\232\237\r?f\350\025?\222\241\001?+w\352>\2423\016?\034*\006?\322\276\024\277\0302\036?hb\002\277\032\200\017?X^\007?p\237\r?\341\300\036\277\332\205\n\277;2\376\276\307\356\r?O\214\000?}\337\023?\346^\n\277]\321\002\277\334$\010?\320\247\t?\230V\305?L\274 \277nu\t\277rm\016\277\346\276\033\277\332\337\n?8O\014?\376l\025\277"
      }
    }
  }
}
node {
  name: "MobilenetV2/expanded_conv_15/depthwise/BatchNorm/moving_variance"
  op: "Const"
  attr {
    key: "dtype"
    value {
      type: DT_FLOAT
    }
  }
  attr {
    key: "value"
    value {
      tensor {
        dtype: DT_FLOAT
        tensor_shape {
          dim {
            size: 336
          }
        }
        tensor_content: "\0340#@\326\326}?r\032\271?^x\254?F\245\310@q\364\331?\010\030HA\014:\023@I\341b@\236\302f@\336\200\343@\0048>@\202\307G@g\332n@\303W*@\271xk@\036\337+A\263\204\274@\201m\032A\202M\252A\306\323\230@\273\202\214@;\243\356@\260\277#?\023\211\367@\037\201\205?[IR@\211\035\204@K\331\241@?\3271@\251jFA\302\302\243@\307=\224?W@\366@\016/5@\354@\265@\257\t^A<F\002@\343y\334?\021\036\264@\327\362\344?\261\270\326?AY\013A\367\204\373@\323[\236@\306.\213?Z\231\202>??=@:\275\215@\027\3410@\267\236r@q]!Ao\246\371?\014\305\204@\027\002Z@k\037\361>F\321D@\336\002r@ok\262=\357O\215?\356\363\231@\222\311a?\3518\260@\213\225\335?\306\014,@\344\262PA\302\262\366?Q\261\007@\n\252p?\211\200F@\236$\200@C,\355?$x\r?\207\364\261?1]*@\342\026\275@\235\300\273@.\246\033@\2005]@\031*t>r\006,B\230g\032@\360M\242?\255\363\"A\2471\232@\274\302i@\333T\324@\264c6@]}&A2\2159?~\005!A\206\274\245?/\361\376@z\004)A\2010S@\337\260M@#\346d@\373\314\201AO\177\317@Aqr@\014\323)A\3565\214@\353\347\334>ih\323>\365\266 ?\345yy@H\272B@\"\010\361A\251\364\371?A3\352@|\344J@\0250\262=\234\214}A\261_\332?\250\313`?\306\235\262@\266\321\'@,&\312@\341G+A\021\236\335@\366t\tA\276\0261AF\306\010A\315^_?\362K\341@s\344\277@\275#\334?+\316\242=1\2631@z\372\275?\245\033|?\0257\n@\336\315\230@\2150\027@Q;\022@\226\235\022A\352Z\355?\376\211\032A\024\321\021A!\365\351@M\0042@\025\033RA\273\002?@\262e\363?\240u\030@|D\240@1\352\013A\032\"\256@ ^\220@\375\366\311@\314ZvA#\356d@\227\300&A\252.E@^\252\261@\273\024\241A~.\343@b\r\231@X%\371?\313J\032@\350\250\225@\334\024\265?j\271/A\370\344\307?\365)r@\371\255\231?\3776\212@\2656hA\250m\235@\2662\006@o\003\362?\325\3533A\3077\234@\325\305q@\261\311\027@V:d@\026L\240@\355c\017A\275y\nAD@+@qN\020A\034\343pA\036\014E@nfN@\374*<A\027\362\312@\300\r\376?7r\313?\227,^A\026\332\375@\322\351\220@\254\333\243@\217\300F@6\246\216@\336\277??\334\200\236@\212\227j@\301K\316?c^O@,\321\t7\0065\272?>\";@P\"|@ZK\320>\030\236>A\276;\273?\t\362\212@\027\242P@\032\005\027A%\242\320?\021\374*7MB\306@\025\330J@\271\002\327A~\350\231A\233I\322@\354\354\302>\036\2146A\273S\223@\302HJ@Fu\367@\374\275\n?\300y\237?\357\277\327@\010\370\340@\033^0@\372\211\n@\t\037\333@\357\355\032@\302w\310?\224\223\325@\3505\203@T\222A@j\252\001@ \361\353>\006\222\374?A\222\034A\214\024J@A.\230@(\253\247@9\320\306@\032V\256?\313\311\202?\n2$?\305fc?\222\014\245@\325\301\225?t\032\203@\356\302PA\310}c@\244#\350@\225G\265?\2457J@\177\216\202@2J\362@O\277\301@\023\314\344?M\327\033@\211R\314@!v\207@B\237\307?_V\245@\256\007\311A\\\357\207@>\273E@\017:\342@\235t\200@\304Y\003A\274\210SAFq\'@\202&\333@\257.\006?\304,\367@\235U\021A\233L,@VY\206?\034\307o@\002\377\026A\253B\026@S\244\357@HI\320@\336AAA4()@\n\275\221?\211[\006A\214\200<@\257z\200@\250\332\"AP\224\304?&X0@N\014aA\272\004eA\233\031\252?\025\342r@\nt\214A\355\002\237@\035\203\373@\020\370\253@\256\313\032@A\237.@\323\027\216@\255BS@\275L\311@\204\254\003A\273\020D@\224\360\"A\201\021\005A\244\261\244@\000\254\266?f\013\3009Z\373\343@;Y\206@\250\017\241@\312y\2047\367\273)@\244\236\034@u\331\310@\372nL@-\032)@\206\344\022@\205\002\274?b\371\333?\033C\021@\261\326\346?%#^@>\215\352@\347\3329@\025\243\336@:-i@\221;h@B\007#@\201\223 @\3516\373@i\363\353?\037\230\330=\202\253\213@"
      }
    }
  }
}
node {
  name: "MobilenetV2/expanded_conv_15/depthwise/BatchNorm/moving_mean"
  op: "Const"
  attr {
    key: "dtype"
    value {
      type: DT_FLOAT
    }
  }
  attr {
    key: "value"
    value {
      tensor {
        dtype: DT_FLOAT
        tensor_shape {
          dim {
            size: 336
          }
        }
        tensor_content: "\273\231\277>\254)\344>\010[o?\016\271=?w\337\020\301sd\227?\016t\201\277!\321\321?\304Z\310\276J\336\'\276\355\313\262=b\315\350>@-\274>\221\276`@\267\353\302?Pk\210\276\340\030=@\251\337\331<\002w\311\277\335\357\327\3004n\335\275r\241\317>m\036\263?`\263\364>\261\221\021\301j\n2=N^K@,\324F@\3211\200\276y\207\305?\t&\031\276\344\307\207@\315\376Z>6bt?\010\371\303?\223\221\206\3001\270!?\321IW?\260i^@\360\311!?0X$\277j\211\340\300\"\016\003?\3064\267?\n\377G\300C;!>\335\367@>\310{\370?\206\356\037?\021\274\372>\305\006\354\300\363\032\300\300\216\271\006\275G\256\347>v\020S\276mL\342>\223\317\340?\014!\034>o\323W=j\023\\?\344$B\277\361lC?\274\315,@\016\340\214\300u<\310>\001}\"\276C\362\355>v\274\206@(o\375>\021\376\253\274\212\210+@\322a\233\277\2741^>m.`?}\017,\277R\325\203@\272\306d?L\235(@\307\260\212\276k\321\212>\026\367\227?\267&\033@\r\250\214\277\227\214\376\300/u\210\276\321|\250\276<\177\212@$\343[<\003o\220\276\254/\010?\007\350\246\276\377\247\002?\333\213\037\277\000\313}?\220\0141\277\250\363\376?ub\370?m\373b\277z\312\020\276\213fV@\301Vz\276<\003;?,S\201>\372\202\257=k\214\210=\355\217#\300_\214\304\300\321.\234\301\235\034.?\377h\352\277Q\374\203\300(RP=\242\232\025\301~\374\022?cm\203>\245\211\320?yH\271\276\260\256\246@m\213\377\277\3707\273?\246\333\356=\225w\357=>Z\005?\203Y\360=\232VT\276\032\010S\277&\305\215\276PJ\274@`\225-?V\300\325\300\271\224K\275\343k\262=l\201\224>\370\036\264\277\321(m?\013@\031\2764\330F@\355\005\366=%\221\244\300\025\027;@\227\215\357\300\210\336\202\276k\346m?\002\000\245?\005\344\263\277n0=>\337\021g?d\206\214?8\336\261?\316\273\210@fAu=$\251\376?a\017\025\276\323\035\007@@_\301?{Pg\277\327\330\203\275\0305\204@\245\t\016@+\315\263?\320\031\376\276C\004I?\207\014\330\276v\334b?\035y\005@\326zv?\002\354\004\300\032\202\"\300\001A\207\276\2666y\276\321\315\252?/\374\234\276\t\356\n@\243\352\374?\237f8>h\255~>\027e\017?,v\260@ wx\276P9l>\261\317\'\301\325SQ\301\022\261??\r\356\036>:\272\257@\252\315\363\275; \241?Q\374O?\221\0263?\3356C@\017\323p?|:\322\3006zK?\n\030\212\300\007\257m=\277;)@\241)\343\300\234\320\274>\006F2@\024\255\0109\270=\216?!\213\221\276\2130\266?\225E\235>\007u\030\277\027Mj?\332i6\276\360S\346?\357\001\207?\265\227%?F+\3609#{\353<E\201\263\276\241\274\016\301\325T`\277\001\274P\300\\I\377:?\322\275\277^\004\237\275\262\212\271>\221\002\274\300\034q\346\276z\037_?\351q\210@X\032\033\277\246\215\231\300\325m\200?\275W\021\301\327\253\310\300\214\301\270\274\245\237O@\277\357\376=\266\004\027@]n\353\276\205~\261>\235\2363@\335\265\323\277\321\374\023?\302#\233?\036\373J=\334\225\272\275\220\004\t>\270#\330\275\"\251\r?oK >\222v$@\260vQ?9\235\211\277\\O\n\301H\361\321\276%*\307\300\371\226\372>\035\207\312?o\3442\300\374\t\215?\275\355\204\275{v\215?rw\223?\365\250\t@\350\304+@B\360\324>\002\221?@K\263\203\276EM!>\001\256W>\346\237\013>\\48\274\347~\252\276\240\214\201\277-\310\222\300\374\n\220=\227\257\371<\230\tP\276\343Y\216\276\317%J?\010\272m\277C\016\031\277\266&\201\277<\226g>\031\315\003?P\321\271\300G\311\333=G\251y?\270>\334>\203\003\240\275\321\020\024?G\301\035@\214zw?l\302f?`\017\364?\03496@,\002\304?\250\361\r?\016\2330?\343#\331\277/\244\200\276F\275\030?s\251\211=\257\307\271\277\"a\206?\002\3503\274\016\275\274@\303$/\276P\301\177@&\232\027?c<\220\276\275\r\030\276i\023(?9\320\267?\005\263\2339\321\"0\276\307a\242\300\230\366\333>\t\351\3259\310\211\006@K$\223?\031\225\004@\372b\003@)\241\000?\321\206`\277\022\306\225?\031\013\262?\343\334\210<hP\277\275\'85@\361\341\341\275\266&\220\277j\224\237\300\230\356M?IY\265@\320\376*@\336\257\361?ZT|>\335{\370\277V;\t\276\304\022\271>"
      }
    }
  }
}
node {
  name: "MobilenetV2/expanded_conv_15/depthwise/BatchNorm/beta"
  op: "Const"
  attr {
    key: "dtype"
    value {
      type: DT_FLOAT
    }
  }
  attr {
    key: "value"
    value {
      tensor {
        dtype: DT_FLOAT
        tensor_shape {
          dim {
            size: 336
          }
        }
        tensor_content: "\177d)>\3765\014?\030\267\020\277\272\304l\276M\311u\277(\374\222\277_\035`@\250\235\250\277\210%\027@L8\315?\315\3649\276\0304\205=\351\005R?\252\213\"\300<\301]\276\013\302\326\276\231*6\300\004N\027@\037H\252\2777\304\357>\235\236\r\277t\302\030@\000\344\203\277\'.\025\300\264!B\277\027Q_@Z\240]\300\344N\031\300\300u1@F\211\370\277q\2758@\215.\026\300\307\225\264>fy\035@r\017\027\300,\260\003\277t\1779\277~&b\277B\270W\300H-\002\277\016>\226\276\023\372\354\276\245v<@7\231\240\277}r\010\276*\252\325?\023K{=\300\273\r\277\204M\340?\203o\327\277\324\211n\277\014\304J\277\242\004:@\353\3616@L\305\230\275o\330\201\277\315\371\210\276\037i\244<\210\001\027?\223\265C\277\376@\222\277\241\316\342\277\302\220\265\277\231(\036\277\217+\013?\nY\350\275\250d\003?\026\302P\274\037\303Q\274\373]+\277\014U(\300\t\250\335?\303\310G\300\250s\325\277\"\254<@\230D\351<\221\267\312\277\026\226\367\277\000\333I\276\333&\001\300\222\323p?\2455%\300\301\010\010@\204\305\005\300\345j\222\276*\242\004\277\301\367\337\300w\201M<\227X;\276\023D\210\276\204O#\276\243U}\300\r{\241\276\206B\007@\277\206V\276\210n\233\300\307\027\212\277\300\004>@\340\005x?\230v\017\300\216\222{\275u8\361?\007\243~\277-[\205\277\201\202\027\300-\360b>g<\224\276f\tu\300\003j\226\277\342FJ\277\220\231s>*\211\022?\304\025G\277\235\237\343?i\302\315?\237\323\226\277\222\332\"\276\341\216q\277_%\375>\241t.\300\205G\237\274\320\312\356<\273\3620\276\000\311-\275\206d\000\276G\026L@\223y9@Nh:\300\271\262\230\277\332\t\t\300\253gH\277g\240\201=\223\312*@\305v7?\033PS\300\2343W\276\254\216\316\277\226\016\334=;\374\204\277v\343\325\275\021\374\334\277@\234\253\276}+\034\276\315\277\307\277\345\355\346>4\302\341?\370Bg\300\\?&\277J\344\202\277\001\323\377\277\205+\253\275\251&%\277\336\367!@@\355\301\2775\214H\3005\336f?\361\366C@EID\277\210\211\010\300V\356i\277\312\232h\276\272v\350\277dI\336\275\212\233\221\2764\246\255\277B|=\275DO\301>\262\303\035@Q\304\266\276RX\032@nY\016\277\021\215g\276\341\217+\276q\374T\300\201\354\025@\304\036\372?n\274\216\277\276\0072\300\272\245\027\276\200\346\n\277\031T\373\276\223\244\021\300r#\327\277\362\212+@\262\236\300\300\313DY\276\320\030\027\300\246h\321\277\344\021y?\364\272\r\300W&V?\366\234\247\277\346;i\277\256w\n\276C\324\372?)l\230\276?\375\204\277Y\301\250\277v5\014\277z,\377=\275=0\300\212\265\221\275\026K\025\277\216\301\035\300\034\316g?\277\034\217\277\235\325b\276_\021\341\277\353\212\324>5\010!\300\004`\206>$\272\232?#H\356?\241\255\211\276\177\250\260?\211\245P=\327\376\025@k%\030?\257Cp\276\307\225M\276\3111*\275\242=w?\251\232c\300\\\231\033\300\001Z\027@\222\t\200\277SH(\300\350\345\351\277U\222\276\276\354%+@\003e`\300\252Bl\277\220q\301\277,\256E@q5\261\277w?\235\277@\353n>2\343\003@\346\242\305\276#\325\005@:\221\241=;\033\331?s\013&@\240%\035\300\0232m?\245\275l\2772[6\300\277\217$@\320I\207\277\034*5@\363h\353\275\264\315S?\327\316=\300\032z\371:d\325\024\277\270I2\276IK9\300@3(\300\225%\340\276@h\325\276o\332\201\277\021\303\337\276kl\211\275 \225J@\023\304\r\300\273\017)@\205\006\311\277l\250\036\276\247\2738@\265d\030\300\375\326F\300Q\341)\275\364\245Y\276\230a#\277W\000\274<\225\340\313>[\267\250\276O\0213@\3437\251\277\244\036\331\277\312_\223\275\216\353\214?\033\260\033\300M\325\307\275\370\2771\276[\270D?\017\257a\277P\301\267?\021\346\'\277?\337\300\277*\370\036\277IlG@\226\301X>\032\342\002@\352\307\"@\350C\231\276|\027&<]kD@\246\272X>P\336 \277\226\201L\277\226=\001\300\000\244\001\276%\334\024\277i\327\224\277DO\022\277\312[\235\275\035*w\275c\025\017\300\036\313\257\277\033u\013@;\347,\276\217Y\362\276\031nJ\276\364l\020\300\201,\003\300C\2330\300\261)h\300C\211\"\300\367\364\262\277?7N\300\323\244*\277`\3722@B\226T\275\274\330\355\277.\016j>\350\322\236\277_\036B\276\003\301n\277=\213\245\300m\235\307\277\376\231X\300R\376`@y\334\334\276\220\262O@)i\346\277"
      }
    }
  }
}
node {
  name: "MobilenetV2/expanded_conv_15/depthwise/BatchNorm/gamma"
  op: "Const"
  attr {
    key: "dtype"
    value {
      type: DT_FLOAT
    }
  }
  attr {
    key: "value"
    value {
      tensor {
        dtype: DT_FLOAT
        tensor_shape {
          dim {
            size: 336
          }
        }
        tensor_content: "\315\273\037?\340+\261>*\267\024?\356\035\300>\257\375\246?O\324J?\275\304\013?\257\014f?\371l\324>\022\3001?:,\233?\"\312M?\221\277\353>#M\306?\371b=?\255\321\217?4\325\322?\374\277\030?E\327\336?\0055W?\223\245\230?J\221\t?*\351\247?\314m9?\346\203\254?\241\001\021?\241\247\316?K\"\255?)\374\005?\263\\w?\014\3554?\274\263\313?q\301\334>\224\366\013?Z\020\235?\2452\202?<OI?\214\0314?\2748\336?\377[\234?-%h?\034\332v?\354\350\002?Fl\261?\273\254c?\016\273\340>K\215\234>\304\0330?$\305\005?\346\366\244?\375\300\226?8\004\302?5d\364>\377\227\002?\212 X?l\322 ?BC\"?\345\302;?\275\246\231>\376\033$?\241\000\275?0\2601?\0142\216?\010\"\257?\311A\004?1\333\241?Y\372\005?\225\002??\357L\346>\014\020z?I^\273?\323X&?\257\300\241?\366\220|?\325\377\357>\341\222\014?\371\357s?\017\324\341?U=\204?&\304,?\266\2613?\\\r\264?\347\361{>4W\006@\227\355\203?\372C\214?3\006,@Q\210]?E\035{?\272\222\005?`\023q?\325\247\242?\3632\206?\035@\025?\017\234U?\335\026\371?\201 \217?\333\037J?\343\023\365>\210\373\310?O0{?\345N\353>(a\007?\363\027.?0W\231?\351#\007?\023l\214?tW2@\317AO?\263A\203?\307:\"?\233>\233>EX\303?!X\352>V3\321>\2506o?\242kG?\031\337\214?\312\200!?\256\246\226?\356Rn?e\230\201?:\334q?/>0?\245\001V?\361\367\033?\010o\253>\323\306\344?G\223~?b~\326?|\212\231?y#\306>\031\237\374>\340\346\032?z\224\324?N.n?F\001\275?,\'J?\227\366\326?\303\250\r?\r\304\331?)\357p?8\353\237>\032\nz?\364\336\353>\020D\013?.j\267?\303gl?\212\363[?\007T\010@\217\037M?\226\037)?\366\2063?2\350\225?ex\224?\n\350\361>\207\324!?\276H\207?\\\363\300?\202\251+?\024~\220?\233\014L?h\243n?\240\201\002?KNY?\241\351\314>\365\0307?:\2132?\340\022\227?\344\333\366>\0319\032?,9r?\340\033\006?\302\364\264?M\016\343>\336C\000?\271\227E?\264\222\032@\270\237\235?\337\034\221?\354\032\236?\311<\003@T\305Q?\023@\337>\273\306?@k\000t?\177:\220?\266\026^?Ye5?\247\344c?\222\217\020?1|\357?\311aq?\276\252g?\037\277\256>Dv\362>\361@\246?\3368>?Ia)?\344\314\210?\372{\222?\013\022/?\225V\037?\204\361R?\260\3364?\234?\214?#\274\243?)M~?9\346\373>\360P\217?\255Z7?g\272\001?U\312\262>\340\257\205?\016\223G?\000\376\'?\372\r\333>\346\323\033?\"\2330?\026\245\233?\347\276\201?\217\370\314>\245\377\220?\260\271\305?\002\037 ?\034\301\345?\355\035\212?r\257\010@}\370M?\004\235\344>\332\330\362?tw\231?0\255\204?\201>\311>\322\003\360>\357\270\212?<\263\024?C\363\r?\r\342\217?\035\260\014?\032\003\205?H\312\331>\303J\236>\370\234\213?\206\322\302>\256\242\207?l\037a?T\'\t?\334\323\274?\321b\024?\304\351;?\327\332I?2\230\324?\340\227:?\375\326\216?\327Vb?\357\230\225?\376\n\277?\r{|?^\037B?H\377\022?am\035?\250\220\230?\230\374\013?qv\255?\364(\327>\241\031\256?\316\221y?}\245 ?4\304\000@\323\374\376?\007\263\034?F\004\254?C\022\224?\322g\324>\312\264\272>@t\202?\271\315\005?\035\224l?\357\234\273?i\235H?\375\352$?m\337p?\016\202\004?\207\330\226?\331\010\325>\022\303\226?\207\267\r?\312\240\022?\336hs?\001\226O?\366\275\033?\177\277\347>\377A\344>W\2202?\274\354\231?\323C`?i8\000?\207;f?_n\026?W\306\242?D\317\272?\212\221\222?\327\310S?\275\251U?\201\350\233?\\\266\211?\230\367;?\356\235\227?\341A\227?6O\373>\317Dw?\000\262m?\201WU?\207H\214?\225,\267?\265 \323?\005\200\336?\364\252V?\374:\t@\"S\234?\272\363F?\216\270\020?j\356c?1o\234?o\372\025?}\034\373?o\321t?\266`\225?v\016<@o\345\236?\350\304\261?\337\234\363>E@\243?+^\212>}\377\261?"
      }
    }
  }
}
node {
  name: "MobilenetV2/expanded_conv_15/depthwise/depthwise_weights"
  op: "Const"
  attr {
    key: "dtype"
    value {
      type: DT_FLOAT
    }
  }
  attr {
    key: "value"
    value {
      tensor {
        dtype: DT_FLOAT
        tensor_shape {
          dim {
            size: 3
          }
          dim {
            size: 3
          }
          dim {
            size: 336
          }
          dim {
            size: 1
          }
        }
        tensor_content: ".\366\177?\346\306\240>\344g\237>\020\214\002?\335#\037>\362\302\302=:\262\017\275\310\212\311>\2465\220?h\371\222?\244\354\t?(\355\355\275\343H\242?\2374\001?\017\327H>\323\020\017\277\301Z\276>p\365;\277^\312\215?\002\310\216\277=\266D=\2431\267\275\207`\'?\303\022\010?\257\301b\276\3601\266\276.\016V?\242\010\231\275\303?\235\27755\007?\017\000\227?\021\231\313>\310\321\251=\020\237\"?e=\020?\0058\233>\221I-\277\023\236\254>\214`C?!\001\251\276\317\207x>\030\027\255=\267\252\272?\241K\n\277\216\"\032\277\365\365T?\255\030r?eR\\>z\226\204>\022\303\226\276\254\023K=\356) \277\010Z\t\277za\213\276\266\"\306\272\234\262\213>gS<>\021\220\235\276;,s\276\357xa>#\203\354\276\261W$?\'\223\347>\267\314 \275NF\267=\016c\224?\264s\373>\030\207\030>\322\370\203\276rS9?\367]m\276\247\357\017\277\330\311\337>\326<\023\274>\302\213\276\300}:?3\322\266?\352\023x\275\2666\374>\001\007*>\244m\242?\266\010.>\036\323\375\276%\213\003\277\032\304\035?Np\302=\313\275\016?\360\245\237\275\374\3065\277J\241\227>\375\363n?\027\006[?W\233\311>\014\033\363>l\205z?\363^d>\374\262\306>\375\017\206?\221\310w\277v>\200<c\321\231?\0340\204\276\016-\016?\220[\361\274\014&\256\276J\236\023\277ie\305\275T0k\276\243\266\262>\306\331\217>e\264\303\275\271I\250\276\352Bx\277V\313\004>\326\010X\277N\225I>m\245\201?\201|\013>\036\337x\277\300\374\232?x\361j?a\232K?Q\227\325\275Fe\344\276\323\364\220\277\r\274\322>s=T>?\2341;\276\3604?F\031\246\275\204S1\277p\017\215?sv\005\277X\314\210?& \241?F\347\003\277\374\264\207= /^?\354QT\277\300\\\300\276\017\256\240=`\202\266?\347\224\231=\002\032\273>%x\365\276\270\210=\276#iY\277\233?\376\275\241\000O>E\2036\276\200X\213\277\344\300O?;Jj?\300\356\355=\250Kk>&\235\334\277[\001\230?\252x\220=\253\033\031>\325\177\010>\237\270\242=J\375\373\274r\346\302?+|\347>\302\215\022?\201U\371>\026[\364\276~\332\023\277Z\247\363\274\330\246\'\276\3423\317>kO=?RY%?\\\0343?\366\255]\277\213\240\206?5\370\316=\240\360S\2772-\203?B\350#=\322\335g\276\3000\310\276c\304\262>\353\373\277\276\227\300@>\211\300\366\276\203\032\014>\270|U\275\245\344\306\276\202\272b?\354\355\307\275L\261{\275u\262}\276\233\327\331\276\204\360`?\240`(?\177+\001\277g3\230?\254\314\251>\374\026\262\274\2775\024?F\325\270\276\254O\266>\317P\234\2767\221\231?\223s\231>@\317u?\345~\241=\340!+\277hx\371>\005\351\241<Q\034{?\321\030\327>\261\314a\277Az\256?\254R\r\277\230\210_\277\240:\221\277\243\376e?=\351\352>\005 \312<\363\211\020\277\250&\335>\334lA=\242\200\232\276}\001\002\276\246\3148>\020\233\227\276\010\030L>\273\254\005?\205R\253>\364c\034?\275\341\357>#\201\214\2777\3652?\232\215\212>\227,j\277S\023t\276U\341C>aw\003>\242m\350\275\277\014I?\277`,?H\031\034?\366k\321>s\006\213\275W\017\t?\006\213\312\277\tL\316\276\270\246\030?k\264\035\277\273\360\352<\353\237*?E\260\340\276`{b\275\336\274\037\277\250\256*?\303\330\305>\240>\222>\371\355\247>|\354l\277\005\277\032?\374\177\276?0/\026\276\310\323\022?\212 \014?\341\333\245\276\272T\307>\236k+>:\r\027\277\313\177\332\276\201y@?JH\260?\316\245\'\277)\312]?\231\002\t\277\276\031\004\277\253\340\253>y\314\306\276\374{\260=V\367 \277\273\r3?\352\236\267=0e\312>\233\3316?=\346Q?c. ?\236\371X?>\022\365>Z\211\204=\250\3649?H\027\323\277]e\216\275K7:?y\271d?\350z\201?.\240\373?1Dm?wg4\277go\326=x\233@?f\230\246>B\325\202?\020\3335?1\251\014\2775\226R?\223\257\020?\037\254!?\360q\024?\224\213\226\277ivO\277#\037R\277 \245\014\277\370iy<$\334k?5m=\276\300i\220>\024\373@>\363\356\261>\340\032\016\277\nD\002?S\370:>\222\247\320>\250i\025?I\311\267>\363)z?I\'\256?\362\235\331\276#\247\337>\351\337\030?\n\254\021>\333s\013>H]B?$Zc\276\344\005\375\276\361\337\213\276\030\357\235?\361\214\312?\327)1?\321-\002?-\037\214\277&B\333>\225\224\330>\203\212\375>82\026\277\264\221\370>\021<\353\275m\220\375\276\r\220\017?\210\317\'?l\306\244\276n\327q\277\314\2252@\\;\342?[*X>\270VU\277\234\272V\277f\020[\300\342u\005@\306\332\025>\364_v\277\3533r\277\233D^>\245?\030?\312H\245\277\365\tm?I\360\037>\347\250\222>\355i$\277\312\326p\277\3544\323>\'\210\032\300\233{K\277\362k\376?\221\r\017?\336r\346\276\027\304w\277\217\260\354\276\335\036\215>\325\254\021\277\232p!\276\227\241\267?\345\370\256?\326\343+>/\027\265\277!l\024\277\024\211b\277\211\364%\277\206\231\223\277!|\326?\335X0\277\006&\203?\341x\225\276\334\232\001\300\020{\300\276\216\031\257>\367 ]\277\376H\271=\n4\335> \2029\275\007\263\200\276t\247\013\275jp\327\276\022\232\370>\261*\254?Jx6\276*!\224>\370L>\277\016\023\364\277e\206\324>U\246@?\374\2222?\341\240E\276\341gQ\274W\265\261\276\344\222Z?\200\243\363=\241\263^\275\005\262\326\276Bj\t\277\344\2263\276hU\316\276\253\335\350>\266A\276\274\247%\350\276+\223\260\277*\256\252\276\230\277\313\275\203[`\276\203\342\252\277\230\n\006?o%K>\320\275\330>\315E\251>\245\237\326\277\200\302\313>\336\342\257\276\032S\257\276?\277\250?\005\372\273\277\211\364\216\277\201\316\330\276h\324\332\276\205\205Y\277\236\257\301?\227 \277\277d\311\340\2759G\223\275\335B\026\277\320\2564>|\205\230\276\237\221\257>\354\277\016\277\202\272m>G\312\036\300/\263\355>\344\357\240\273k\005\310?d;\350\276\030\364c\277\344C\266\271a\277\233>~\216\327?\225M\337\275%W\005@\304\350\241\276d5\335?\"\272\205?\030\246\305\277\305\017\027?I\335/>\212\242,\277\211.\001>\004\233\212\276\035%%\277k\327\342=\262>\r\277z\257=\277n=\201\276\345\'\203?(\321\266\276/\233\036\277l\372\264\276\013l\216>]\2659?{\2031@bF\200=\n\310\316>L\270[>E#\343<\257\233\002?\026,\262\277\255q)\277\242\254\002>Q\310\223<H\246\301>;\241\205>\305\362l?\314\334\267\276\324\033\010?Fy\215>\217\3771>jt\247>m\217\240?\3066a\277\225\037\234?\346\004\317>\020\312\232\276\327d\205?D\344,?\340\013\212\277\344\010\001@\231X&\276\366\367f\276@z\021\277\017\337\031\277W\346\261\276\340Qo\277\260\307G?Lx\004\277V\226\">\033\301\200\276>\023=?\351JK\277h\024\347=0\3748?\340\344W?\033)\234\276\307\247a\277i\262\250\276\353\225\272?\365\371\364>S\274\003\277\242(/?\303N\377>\306\340.\275\336b\316>L\245V\276E\313\216?\007\356\016\276\377\206e>\032\233\357>\215_\371\276\033\276\034<\033\006\344\277\224\013\277?U;\021\271Ac\223>~\331\216\274\007\337\001\277>V\221\275\372\372\315\276\2330\214\277\371\315~\277z\332~?\336\305\003\277\036G\257\277\377\200\233\276\212\\D\276\351h#@\216\301\010\277E\2359\277e\265:?\271\023\377\276k\346\036\277a8+=[\nZ?\265\"\230\276,\322\336>\332c\202\277cc\303?\212\311\341>\365\027\252>\366\201<\277\254\3374@\032\255\320?\001\314j\2776\234\017@\315t\221?-\311\366\276hE\016@\276\3148>\224\317\330>;\300&\277\312\240J\277V\207\212<~3\220\276\022\250\202\275\236\006\304?\277\300\254\2761b\035\277\347\341\367\276\177\'\362>:1\271>#\232u\277\273\226\332>f\0216?Q\354\033?\322 8\2761\"c?\232<0\277\240\3153\277*/J\277\255\237\226\275\216\r\034>is<\276\006pi\277\252E\036?[\365N\277\031-T\277\004x\013@m(\375\2767\225_\277\35465?u\274\332\276\271\300-\276\013@\245\276*\272\260?Z\255\031@\374\360\365\276?\203_\2764\206\330?Y\305\006@\240PP?\241\253\261?\210U\227?\021\003\376?Ga\r\276>\024\013?\205=\210\275\301\213\036?]\365\364\276T\326\230\276oH\252?\344\223\344\276}\222A=\366`#\277\313\304\257\275\010$\335\276\213\340\004?R\245\320>\3611\300?\006|\017>\372m\347?Z0\214>q\365]>\025s\351\276i\003\220\276cq\260\277\000\027\267<\253\037\335>\316\022\025?r\360X=\277\255\364?\304&\347?Z\037\207\277}K\031?\347\264\035>1\230\017@\036\030H?\t\374\255>6Y\237>\340\220_\277\376\330\362\276\247\334\n@\316t\220>\251t\210\2750\357\260>\317mV?\360\264,>\020\214\026\277\203\t:\276\307dy?\324\235s>f\302\203>\234\233\336>\373SZ>\201\212\254=\"\020\205<xx\343>p\233\212?\264\273\215?\357o\247\276\314%\313?\320\033\233?b\024\363>.\312M>V\360\236?\247t\213>j\031G\277\363-\216?\004\204\222\277(\343\010?|hP=n\311\036?\302\223\007?\251\321\227\276r]\234\276y\030Q?R\220\305\275;\350\217\2773\364\350>\324\233\241?\215\036\326>\024\272\035>\272\354+?\276\220!?\002q\240>a69\277\022\204|>\216\"\034?\363\270\244\276\234\317<\277h\020\302\275\327J\257?\037\321\366\276\360\t\'\277\271\220+?\341\035B?h\270\027>5?\207>\307\207~?L\335::\003;\023\277\203X\306\276\244\367\220\276\026fJ\276\256f`>\241\260\010>mq\371\275c9a\276n\370\340=a\247\277? \377\027?\3109\335>\237<\260\275{7\013?wj\214\277:T\336=\026V#>Q\350\245\276\r%T\277\310N)\276\020\312\013\277\201\332\375>\300\237,=\222\204\254\276=\3366?O\274#>\377\343\301\27494\216\276\345\303\327=z+\315\276|(%>\243B\007\277r\246\n\277\37312\277\236\314\307\274\275\225\016?\221\217\243\274\263\352\205?A\312\262>\327a\n\277B\034\215\2762\033\226\276\301\313\323>uoa?\353h=>~\271\250>\r\010\213?\222\310[\277\207J\336=\364\034\\\277\237\261c\276\025X\333>\243K\333\273 \373\'\275[\010!\277\027<\005\276\355\272\261\276\210,\204>w\265\230>\322\035\327\275\n\300\231\276D\327\212\277\234#\234=\017ER\277\272\257\321>\331\241}\277\211Z\003>\200\252U\277\025\313\230?1\275s\277\350\275@?%\317\336>\311{\231\276l\222\241?\360\361\365>\330\030\r>\221s,<B\005!?\230c\334\273\235=\227\277%\273l?\246\302\355\276AF}?\232\n\210\277\220\364{?\322\200\326=\031?\344\276\310\024C\277@\357\265\276-\217\r<*\247Q\277+\'V\273\346\336\234>\317\336\323\276\006 \252\276\201\002B\277\306\213\'>J\206\031>\236q\213\276M\236\226?\031\347D?\350\353x?!\332\366=\322\340\224>\330^\311\277\253\001\233?$b\007>\343\317H>\372\361P=\035X\316<;\215\365\2722R\206\277\217\026\324>\r\036\r?\232\350\340>\354\205\360\276[n&\277\354}??u\017\211\276\'\357\235>\037P\013\277\023d\037?\311B ?\230vG\277\317zy?%\276\271?\t9R\277\037\024\004\277z\275\374<\002*}\276\236/\275\276F0\245>Q\004\347\276\225\335g>\336\207\036?\"}\203=i\221\036>\367n\234?qoU>\373jY\276\274\300\023\276\'Q-\276\234E\321\276\024v`?\227n ?\276\000\003\277\222\n\216?/q\271>\\\244\207\274\310\275\035?\021\222\233\276\203}j>\364@\202\276\242R\227?\222J\241>\356\321\025\277\303\014^\271A\370\021\277\003\223\300>\334\227J<\r;n?F\240\275>\361.A\277\273\362\263?@\302\356\276M\236]\277\3617\222\277X\007X?\327\304f\275\235\203\211=l\316\000\277\244\006\346>\005\343 \275\214\256\323\276\302\031\005\276\344\016\002>2\275L\276\377|L>Ey\355><7\274>xP\346\276\037\275\372>\261\340g\277\t\315\001?q\n]>IS\337\273\002\360\033\276\205B\027>\371u\"\274\035\0353\276\036\251;?\270\274\032?\325A;?`\251\226>\363HS\2767\317\033?)\234\305\277\221b\315\276\027~+?y\370\023\277\n\272\347\275\026\374\025?\017(\306\276\020\2341\273\363Lt?k\027\027?sH\312>\\ \205>\n\204\267>R\333y\277\274X\013?E\203\270\277\213\343\234\276\237j\340\276\322\027\006?%F\371>\021\241\336\276i\177\354?\2420\024\277\214?\301\276\030\2222?\212\215/\277ME\201?\027\233>?$\352\305\276\354\323\035>,\220\240>\204\032i?\233\"\373\276z\203(\277! \373>\307\317\213=\352E\303>L\032\013\277;\016S?\342\'\025?\213\242V?\201\221\345>\234\0069\275\356g%?f\273\004\276\370\300&\276*ZO?\232\212^?\327\200\r\277\014\376\206\276e\002K?Yb6\277\024\352\231>`\017\333\276-W\242>\370\217(\277\326\315\037?X[\013\277v1X?p\2222\277\231\207\'?5M\014?o\377\003>C\202\035\277\243\336/\277\372\020\013\277ZW\037<\330\322\'?\305\200{\276\350\201\221>\311\372$>\200:\234>\272\t\303?L\305\002?\037K%>\256\264\236>\000\363\n?r\230\232>fru?\303\037\375\276\245\310\306\276\022\004\303>\230\225\014?\332\3456>\342\307H>\361\021T?F\362\'\276\251=\364\276\tf*\273\336\343\274<\276\037\253\276\374\006\r?V\313\222?\217\221k\277\010\261\255>\370\006\034\300J\000\010?\226\025\270\276q\273#\275\352\362\356?dT\321\276D<7?\240K\365=\371\307\331=\td\034\277yf\227\276Hi\240\277\375\017\276\275\266\225\244\276^\211\224\277-^\246=\3067\315<\346\307\335>\276c\200\277\215\276\025\275\262P\233>[\366d?f\364\"\276PA\003?\262\346\007?\025\030\215?\220@\026?\213\003u?\343Y\316>\301\r\033?\273\313\347\276\360\364\301=\273\000\374>ul\021\276\2035\266?\312\313\006\277\267\t\024>\341s8>\337\373\217\276\227\225\007?\313%\333=\342\331\216>\270\256\265=\301jt\276DC\375\276\307\342\357\276\360\253\331>e\255\022\277\374H\273?[\021\361>(x\372>\014\262\001?H\304\374>>#b>8\036B\277\n\311.?h\374\026?;\031%\276\007\245\334\277\337\010\361>\216\326\000@.\202\365>\337\244o>%M\270?\001d\266>\302;\257\277#\2612?\275\255\240>\326y=\277\351\344\224>\022\204\216?\270\001g>\300\346\364?~m\033=\366P4@\366H\206>\267\352o\277T\261\024\277&\272\337?\206;\t@\317<,=\320R\307>M\035\224\277\322\241\374>\031e\212?Q\246\235?VX\377?\021\313\023@#|\212>o9\241>\327\306\314>d1\227>w\327J\276)@0?+\212s?\207W\204\275K\246\211?\030g\302>F!\370>/{<\276\030L\353\2761`k\277x;\224=Y\2248?q\"\232\276\013\004\016?_\234\274\276-\303\333>\320B\242\276i\277\315?\354g\202?It)>\232\230(\277>M\245>\363\257X?M\230\303\275\351\324\220\277\364\277\206?\217\262\031\277\223\331*\276#\227x\275h\227\234\275\225\343j\276\036\004\342\276e+\357\272G<\213\276\276\322/\276\236\214\201\2762@F\277N\327\214\277-\304<>\320\207\240?\270\351\371\276\320\336\016?-\\J\276eK\215?mT\345>\257\002w>\213\300\336\276Efc>_\272\014\276\261\245\301\277\354\205\032?\007\362L\277p\253\277\277U\324\342\275]\241\215>\213\245\020>&\236)>\222\246\345\275+\252\252=V!.>\321\202m>\rdU>\215\377\271\276.u=?\020!\275?\334\232\013?\350\340s>0\265\357>\200!\014\277\365\340$\277>\260\221\277\250a\r\300\233l\361>@=\336?\002i\\?9\210\373>\3118C>f\305\031\276,<$\277\004~6@\n\262\325?%\204\377\276\340g\237\276#\037E\277\226\353K>\345>\242\276\270r\233>0p\323\277\2035\023?e\250\227=\333|\244\277\303\001\310?\325B\373\276\317\370*\277\314\305\037?\210\236\000\277\027\025=?\205\230\003?|\2309\277\205\273\356>\260(\265>\334\370\022=ZY\016?\030S\356\276=\322\246>\005\006\232>\014\272k\276t\344\001?mg\000@M\316\217>+\202w>\243\320\300=\033NI=\003\017{>\1773\255>I\245\177\277\nX\234>\322N\326\276\207\240\024\277\215\025\233\276\026I\n?^\224\010@\275\036\304\276\266\304\231\276\210\360\010?:\205\332<\356\330\240\276\371\234>\276\246\010L?\025\314\233\276\356\214\271\276\222n\324>%\213\203\275\316U\312?\2020G>I\363\376\276\376\021\245>e8H=\010|\022\300\032\325\374>\341\365\266\276\315\177r?v\334\031\277\025\313\001\277\217\366\013\277\216z\322>\376g\312\274\021\273C?j~\371>\315W\211?\014\000\027\277\340\013\242>\nh\362\276\327\201\244\277#\331\244=k\244\320\276Y\311\341\274.\357\246\2772K)?|m\230>\246W\255=(\373\273>\010\nS?P\253\000\274d\254\302?GT\300\275\342\204\375?j\227\324>\026#%\277\003\313\027@\370f \276\377\330\246\276\364H\215\277\356\021\026>s\340\316?\001tL\277=\013\257>\277\357\223\276\177\360\302\277\226g\336>w\3617\277\214\025\023@RdX\276\362%\200\276\331\363\215>s\203c?\227#\307?\263\315\027<;\021\210>\305.\350>\345\205\037?\337\245o>\242\372\035?\355f\206\277\345U\313>\r}\234>\026B\024?\010\336\316?\355M\204?\271~+?0\034\311\276\352Y\221\275\363\272\327?\201`\251<@\354\330?\230\362\343>\0266\026>\260o\032\277=\215\310?.\307\220\276\205_\255>g\tL>\227\235\217\276\010\307\367\276X\314\245\276\022\221\003=\3621C?\357\270\317>\304\367\036>\n#\324>\203\207\262>fC\326=\335\037\326>\306\354\257>cWx=\215\0345?W\214\376>\331\324#?\r\261\250?\200$\251\2768d\245\276W\027\344>\262\365\246<\033\036\007?\267}\223=\271f\233>yT\346\276=)\270\276K\206\300\277\224\302\257?\343\202\202?t\001m\275qU#\277z\\\303?\364\034\r@\007\361\321?\202nW\300?\262V\300\360\375\321\276\"\364H\277\tO\245\276\036\207\235?\031\217\004@?\232s\277fY\007?u\316\253?\032U\036\300aI\034@\334\275\'\277(\356)@|2\004\2754\316\240?\207\202\200=7\001\326\277\305Fh=D[\235?\227\334\273?\270e\220?\330\251\261\300\343{X?\341G\377\277%??\300\244\245\206?\356\252g\277\247\017k?\211\260\336\276$\263\024\276<Z\252\277A\222H?_\234\311\2779\257\214\300\246u\'\277=8\250>\037K\305\277\310\356!?\232\302\303?\252N\210\277\t0\'\276\032|\252\277\362\360\331\275l\030\267\277\030&\325\277\317\233\260\2773\215\277>\323\244\271?,k\314>\253\225\023\277_\002\310?pWC\276i\271\241?\025*\261?4\'\314\277\263Tf?.;7>\275<\036?\207\321\332?\270\276\376?\006~\'\277t[&@os\037@\223\343&?\206k\264?|\317\035@\034lR?\303\330A\277\273\344\005\277\213\332k\277\026\276\204?\323\225\203\275m\335\005@\243F\026>\r4\360\276\305\252@\277\204\027I\277V}\247?O\314\225\276\254\255\375\276\271\263\024?\316\265\210=\256|c>{\371\325\276\021\367\271\277\372\334\227\277\320m\003@\325K\014@.\227\224\300GJ\330?_\253\350?RO\324<@\350\204@[\211P?\240\344t>]`i\276\243\333\231\276\350\352\237\277@\364\202\277\3661\315?\'\323\222\277\257\226\267\277*sX\277\374\017\374\276\020k\001\300\370\315\343>\312\341\346>\244\363\200\277\020\245\r@\350}\340?r\006?\300\234D\003?\\\200\206>\264\236\000\277\223\221\325\277!I\\\277\"\006\224\300B\266\002\300A\354n@E\354Z=*\227\301\277\244\036:>\024\2777?(a*@\206cH\300\354\263\241?\"Y\207\276\254\340\345?\342Fa?\374\370%\276\217+$? \367\337\2775@B\277\220\310\024@.\217}?\341\250\n\277I\244\330\277\343\335\310?\213\2468?\316\\\267?\266\014\343\275\374\3728=@4\263?!{\205\300\274\341\n@\323f\305?e\036\304?\342\276\211\300\322\"\032@8\321\000@\027\225\342?\357o\002@\272[_?\211\376c\277J~\232?\025q\220?\371\213~?u\254\005?\233\330:@u\214\321\276\374\335\n@\247J\252?m\322Q\277\2310\367\276\036\230\236?\n\243H\277\351V\361\277X\010\205\277@\3644\277f\304\017\277\023\203\207\277H\276\010\300k\243\032\277_o\261?\036O\227\277\240\334\030@\306\'\027\277H\207~?\225W\224?y\'X\275$/\376<\206\033A@k\3712\277\014\307\\\277\020)\206\276\203\352\300\2772/3?\254H#\277%ZD\3008\341\207?\301\337\241\272\355v\320>\250\224\275\277\2439\345?f}\236?\030\310z\300\234\247\246?Y\t\217\277\345\000\347>\315!\024@\345V\214?ME\320=\330\301\205\300\276\326=\300\217\014\"?\3406\301\300\007>\252>\000D:?Y\277\n@\231[\357\277\300\0274\277\351!\'\277\227.q\276\004\341\325?@\035[?\253\266\201@\217\203\245\277\203\233\201?\032\027\357\277\031\266\266\277\363\230q\300\365\304\013@\266\300k\277\331>\265?\030\253\306\274*\362>?>\315\302?\343Z+?4)\245\277\265\335\030\276\333\360\023\3004\302p\277\317h\203\276\'\014\352\277\257\201\211?\t\367U\277O\010\310?\220d\243?\232\376\022@3a\006\277\320[|\300\312D\005\277\231\377(@\356\202\213?>\266\256\276\357w\235\277\366\030M\276\273\207\242?\330a\341?8\221\347?\260\226\010@R\315\013@\020\345\232?V/\t=49$@\264\220Q\277;\256\030\300\377\255\031\277q\317\224\277`!\226\300\014\264\317\276A\261\340>X\224\364\2732MF\2779\256\373\276\347i\255\277\3607X\276\377\252\265?\346Uj\300\356j\r\275\367\200T\277\262\322=\277\305\203\306?\3678\203=\275\264.\276\320oD\275\312/\267\275y>\272\276\260 z\300\016\336\216<a\231\216?L\224(\277\247\246\224@\255\307\013@5\350d\300\375U\243\300\024\247:\277>\360\204\277A[|\277\330\232L=|\246V?\274\334z\275E\311>@\254\3105\277\343\363w?\007O\030@\325j\030\276\363\005S\276\245Sm\277\232\331\251?)Ms>\034\036|@\022r\r>\374m\203?\2675\314<\0207\241\277*\020\324?u>\022@\0049\002?{t\r?\324\262\324\277sKr?J\361\330?`~ \300\237\214\022\300L\021\365?\326\2157?K\240\340\277\301\376D\277\301 Y\275\013\010v>\300\002\017@.\256\301?\006Ll\300\255m\033<\016\307V?\276\207\313\276\201\t\227\275\322\226\220\276\235\363\334>\215#\237?\005(w\277O\255\250>:\246)\300%D\245>\354f\236\275>\024\221=?\037\253\277\003LW?K\216\343>]h\323=\266\345O\275\275}\363?\354\202\205\276\211\271\230\277\004\027\205\274\244\261\266\276\302|\002@\2417[=\203H\013>x\237\303>\327\017z\277v\326\005=1\035\202>\323\332e?\265\024N\276\253\320\000?pK\005?\357\266p?\377\303\036?Q\014\222?n\372\265>\241\227&?\312:\307\276\222\177\256=us\317>\352\315\210=\033\351\346\277/\337\355\276d$$>\221LB>h\375\207\276\236E\004?\211R\203=\241\324{>\3333g=\306y\242?\350U\212\276j6\340\276\354 \264>@\3314\277\246d\235?\002#\316>\342\276\371>I\342\354>\224;\013?\004)\272>\313p\023?\336M\'?$~\002?d\233\312\275*\301\000@\336^L\277\033M\217\277\227b\361>\230h\035>\312\236\337\276b\366\301>\365\362\242\277\027H\037?\032V\217>\373)n\277\035l2>n\357(\277\3146q>\270\235_\277\322\236\024\275)\253\321\277\220!\332=?-k\277M\025\005\277_Ih\277\206\317\227\277\255\242\267<\205\205\017\277\276S\323?\271\177\351>\254\033\242\2777<W\277\002l\310\277cA\024@\270V\335>{\247\204>\341\343\240>\006=i>\036\014\341\276%\376,?{\313m\277\217\334\232\276\262\357H?\207\274\271>A\371\331>h\026\\\276f\010\003\277GSa\277\232\226K=\273\367]?=\210\201\276D\322\036?\265\324\366\276/\316\033?!\214F\276\033\340\223\277\236\360/\277\330r\316=Y\201N\277\375\216\331>Wu\254\277\271\370\361\275\'\\\026@\0259~?\235\352\217?\347cI>M\201\323\273\006\003\341\275\257\333N\276\323\312\376\276\001&\022?\225d\000\277\323`\242\276\334\310\341\275\250SV>m\223\266?`/E>rP\366\277z\310\364\276\217\034:?\'\304\'\276w\3642\275\305@\263>\025\333\212>\344h\302\276>\363\277>I\345j\276\235h\262?\244\343\322>\203\222;\277*8\216?\027\350\234\276<\217\306>\230\356\003>\357\327 >\326M?\276\35539>b\331\272=\311X\323=\263\310\244=\210%\007\277\030#\373>\200\214\210\277\323\325\312>./6>\357\251\311>\355\205\372\276\014\0306\277@\316\310?\005\335\007\300<y\312>\314\371k\277\341\243<?u;\351>-\2235>\242\004\223\2760\252\214?\251\0019@\241\244\215\277\236\265\273\276=\224\305\276\236\300/\277\355\303\017>\357z\274\276\253\005\212>\277\031\024@\340x\001?\247+A<\017\200\031@\340\270\317\276bx\373\276\3217\017\277\006\220!?\330g\375\276\311\274I?.\367\317>\260\203>\277\023i\025?\024\n\334>\311cE=\3024\370>\020\242\350\276o}R>-\307x>\255\274_\276R\242\330>+\200\'\277v\225\204>i\366<>knI=\013\021\032=I\314\354>=Q\272>\271\254\220\277\345\241\374>\t5\003\277\323\205\036\277\031+\276\2760i4?Q^N\2776\315\243\276\016c\260\276\256\333\361>p\340\334\274\336\353\350\276:?\016\276\240\177E?&\314\227\276\370\216\306\276\331\'\375>\2038(\276_v\002\277\210G\252=\326\205\021\277\257\237\207>:\353\325\273\333\024D\276o\203\351>\n7\251\276\356\nX?\373\005\025\277\360v\005\277\317\254\276\276F\022\201>?\233\214=\316\037*?\302\373\221>\206\235\232?\300t\r\277c\201\t?\242\025\276\276\316T\233\277\216\235K\274\322\347\256\276\354\2520\2757\347\231?\361z$?\r\224A>\216\273\275=\243Q\034>\230~1?h{E\275v\373\255\277\237\215\357\275\215U\004\277\255\377\366>\024Y\365?\026!\254\277\021\035\210?\375\177\241\276?g\225\277\2553->\375\217#\277\324(\343?\374t\013?\231\275\235\276.\347\034?\271\304-?\313/\262?\200\323p\276\341\007\324\275Z\211z\2760\360\200>Cqb?\277`\276\277\313Ri\275Lx\207>6#\025?=\235\010?\017\370+>\330P%?/\275;>\031iZ>/\205\306>\320!\004?<q\206\277\231i\300\276\242\027N?\273\030\270\276P6\257?H-L\277\031\222\251=\231\357\224\277gb\270>\376M\017\276a\020\362\276\317^\266\277:6\200\276#,\266>\313\265\023>\322e\366\276O,\013\277\037\336\210\276\273\311/=\301\021c?\343\337\243>\013n\217=\347d\316>0J\243>\2554\237?\202\366\250>\307,H>\001q:>_\250+?\312\010\314>]\376\013?G\214\261<@,\210\276\356\233\217\276\315-\314>\331W\017\275n\341\340>\002U\n?\322>v>\300\020\350\276\261\343\342?\275\320p\276\217|\201\276\364\367r>fn\226>\262\305\002>\244\n%=\252\253\361=k\2316>\353/\217?\022\035\311>\356\034I?)33>UEf\277\345\233\241>!b\004>\333iL\276\343\352\257\275:\036q\277\345\202\004=\031e\236\2777f\"\276YTk>\232\361\002\277*=\223>\356%\300\2769\020\246?\357\2501?\367\244\177\275\313\251\"<Q7\267>XZ\231?$&\215>\253\335\215?\333\310}?iY\000?Y6.>\313{\274>\244\216\256\274\314\205l?\027\252 ?g@\211>\013_\026\275\014\274\217?\357\321\213?\312\270\363\276v\202\032\276,y\005\276\215\177\215>\'\360\267?\342\305\225\276\244\\9=\002\025+\277\010\225>?\035n\211\276\\. >\262\341\377>\364\240\006>3e\214?\322J\366>J\261\025>rz\240\276\227\253\262\276\340\355\277=\211P\324\275\272)j\276\354\315\257?\243\t<?\016\273\016>\220\364d=\353;\372>\205PZ\275b\374A\275\376p->\325Y.?5\215\237\277\343P2?\226\344\301?\216\003\240;)t\254>\335\326z>\317\226\241?\353\003\034>\247aC\276\332\237\001\277E\035\376>\262\005\017?\201[\376>V\251\023@aR\240\2767\333(?\250\t\177?\026\003\200?\333\215\236>\317\221\327>\313,\375\276\010\203\t>\007\340e\275;\202s?\003\"\223>\037\210s=#Z\222?\300~\321\276\2541#\277WF\224>\363\251\006?\327A,\277\250*1\276\017\351\256\276&6G\274\273\267\215>\017\2515\276\322D\211?\025o-\277p\223@?\231uT?\375ul?\034s\362>P\377\266=\237\236\016?\271\212\220?\233\244#?\326\226\016\277\263G\355=\220g\021?\037\3665\277\022P\242?\235O\033\273\375\263\200\275\315\303\315\276Ms%=\004H!\276Z\377\210\277F:\202\276\246\030\315\274Z;>\2779;\010\277L\0040>\336\352\224?Eu\274\276jf-?\324\254\301\276%\264\204?\242\t\247=\033\216!?\360\302\364\276\"\206$\274\324a\332>\373\227\027\277\211\211q>\'\333\211\276{cR\277\325\252\014?\001\356Z?\347\004\014>}\217\315>\303\270\200=wK\331?\010\352\026>\315AM>\350\204]>!\324\177\277\014YC>\037\016\243?\322\312\027?\311[\000?\263\327\007>\325\035)\277\001\320\257\277.-A\276\305\216\377\275\201\371\341>\250A\223?\266B\247>\230\325\276>\250[\354?*`\307\275\216\243\335\276\274T\311\276\226y\035?\374\365\001?\326\016\275\276\242\324\264\2765U\000\276\317\023\214?\021\025Y>2o\240=\022\250\377>\362\363\323>i\206\361\275\3025\221?\254i\007\276_-\230\276\332\036\021?\235\340#\277\320d7\277\333\362\022?,\001\230\276i\231\374>\311\021\232>\217\211\033;v;U=\000Mr?\254\221\321\274d\227N>)\221\234?\375;s>\277t\237>\350\360\315>\376\3061?\365D+\277\206\354:<\325q{?\200c\t?>It\277\256\270\317?\217\3614\277\203\3028?fo\304\276\265\224\266\276\253B\347>\3616\275\276}\360\r\277\306\346p\276\232W\202=\227\022r\277\205V\365\275(\"\335\274t\372\314\275\273A\031\276\313\\\375>\361\322#\276;\224l?\002f;?qbt?\277Nk\276\220\n\270>\177\025\237\277\231\232\000>\200\017\224\276[\207&\2765\355@?_\347\347\274\213i\210>X\\\305=\264\231\211\276\004\245\357\275\226\272\010=\334\222}\277\031\312\254\276\370\023\005?\240\250\017\277\243\351\300\274\036\260\332\275\306m\n\277\031o/>\246-\236\276w4\235\2763,\262>\266u\024?U\304\270>\210T\232\276d\377!?)W\235?\272g4\277u3\214?G\330\263?\204\263\265\276\303\214\037?\266M\313>sX\350\276\n\304\223?pf,\277\305\006z?i\265\263\2758I\252>\333\311\213\276\341\372\207\277\240\001\301>\002\356\021\277\263\346t?\006\254\017\277\353SV\277\303\302\312\276\232s\202?\341\001\340>\310\177M\276\026pp\276o;<?\n\302\310=W\363\245>D\254\260>\337;2\277k\315\351\276\3719\233?\205\2768?\352[\374>\342\004\272?\241a\335\276L_\347\276P\305\221<\212\351:?x\222\341>\245KB?s\"\022?\265v>\277\350tQ\2770\221-?pil\276\235\266\345>\205\327O>\251\204m\277\340O\374\276\357\235 ?\2349\343\274\201\361\\?\247\037\340>G\363;>\371N\225\276\224\360\270\275\377:\360=\267:\n?]\327M>\370\007 >\004\244\360\275\344\213)>d\212\220\277\207\014\235\275P\375\010\277\3606\353<`\355J?\031\346\'>\260\361\030\275\323\225\215?\0057\331>\006\226\267\276l\352\235\276\034Sy\276W\252b\274t\224C?\210\246F?\364\215\225\277\315\376\330>\365{\217?\220O^> &\354>\270\362c\275\026s\037\276\200\360B\276D\324\360\276\324\360\212=\325\000\337>#\227\245\275\277=\033\277\335\224!@\030-G\277\331\217$\277~\245\222\276k\327\256>K\017d\277\021\226\327>\014dL\277\201X\241?\\e\324>\235^\205?3y\220?d6\255>\027@$?.\357\317>l_\276>\n*n?\355\010\036?z\221\305\277\230\252\010@mi\022=0\317\265>\007\355\002@\215\241\275\276\006\301\003\277\320\353\301>`k\270?<4\251\276\300=6\277J\302\'\276\256\307>?\345`\232?\306K\273\276l\014Q\277\036\013\212\276\315R\232?\235\204:@I5P\277\037\023\r\277\\\261\200?\342\356\326\276\364H\377?\312\334Y>_\336t\277B\357\"?\2266\001?\'\311U\276+!f\276\374\007\241\275\216\272\202\275E\177\300>\244t\202\277\2104Q>\320]\266\276$\345C>\366Yy?\332\264\346>\311 \304\277\001\275K>|\322\260\276\024n\"@\213L\235\276\367\273\004\276\246\204\245;B+\235=\236\361F\275}\211~\276n\030g\276\202\003\032\276]F\346>\364\251-\277\316\204)\277#\017F?+y\210\276\227\246\272= )\315\276\3775\364\277U\365\240\277\346#j>fE[>\376?\231>d$\252?\352\233\202>\244\214d\2761\331=\276\235\203\244\276\0023\017?\2751\214?5\214\332\275\341\213\304\2767/}\277\311\214\311\276]\021\310\277D%I\276_\375\262?\315\306\262\2760\033\213?\025\007\000@\"\037\363=h\006\377>\344\332\212>.\231\325>\373\314\231>Q\205\373<\027h\343\277/Z\"\277}2\221?ji\\\276\314\014\022>s\371\274\277\007\034\235\274\220\241\"\277j/$\277O\026a\2777=!\277\006\310\204?\n\376\007\276g-\023\277\021\317#\277\265\231\374=\274\206\304\275\'Uj\276\005\274\244?\\b\245\276\337\250\331\276\341\202\250>\006h\203\276\'\314x\2761\237E@\304U\275?L\262q>\\Fe?\2710\030@\360\023\353;\030\320\306>\200\243\252>\205\256\017>\276h\034?\231\243\270?\035\\?\277\231I\363>\373\261\032\276{F\216>\024d\277\277\026\377\224>\263\224\023\276#\247\177\277\"=\004?\234\205g?\331\242\256\276\375\344\241\277~\252\235\276\260\314\222?\352\333\300>se\233\276G\334\231\275\303\241\036?\001}\225?\304\256\270\276\260\236\206\276]\273\373\276\351\206\273\276\305\222\001@?\035\330\276\340\216\215\277b\351o\276| \316?THw?\244\303\334\276\345\223+?\373\206\355?\031\211\330=\375\277p?\037\332\250\276J\300\215\277\207\237\321?\241\262\246\276\025\364\033\277S9\364>\036\2642\277.\256\350\274jU\365>\235\344\r=\237G\243?#d\353?\254f0=\220\014N?\2465\355=d=\006?\007\304\324\273]%\333?\376P#>,\220\212\276zRq=\r\\\023>\235\360\375>\260\2603\277_\021q\276\260\312)\277\366\321\351?b\030b?h\231\311\277f!\006\277vP\327\276\251\264\017\276\310\263R?\251c,=\024\213s\277O\330\013\277\310q\224?\006\357`\277\200\255\n\277\336vp?\207H\257>Y\002\226\2760\001\245=%w\235?\312\027\037>[\235\t?\343i7?\001\2264@aB\027\2772\\\236\277\371\271\005@\2234\304\277\257f\203\277\247\230<?\261\372\002\277Fu\375>\321\343\366>\265#\342\276znA\277\332\233\320>\215\\\370\276\237}.=\'6\360\276Y,\222\2762\263*@\242\252\273\275A\0321?\342\201\004>\307\255\243?\225\214\264>\320\301)?l\341\245>0x\375\275\336\226\321\277\221\270\000\277\354K\024?]r\026\277\271\327\357\276\222}\337=\351\212\212\276\333\345\256?F\245\343<\205\243,\277\257\3127\277\335\340\271\276\374&\336\276\227qO\276*6\002>Am\007\276\177\006Q\277\302\316\017\277=\253\005\300\000\031`\275}\357{?\235Y\225=C\010o\277\321u/>u\016\022?\255S\322?O\224\177?NO\341\276\317\375C\276\036\322\221\276\237\036\255>I\234\177=P\220\255<\237l\231\276\327q\342\2775\272\340\276^\232D<mf\t\277\2672l>\270\376\013\276\217U4?Am:\276\274\337\033\277O\215$\275\304\356\363\276\320Q\003\276\374`->\234\\\273\276\370\255\323\276\236\255\227?\r_\021=I\340C?\373\273\000?U\321\312>\254\330\227=R\366\247\277\027\215)>\241\363D=\231P\212>F\253\357\276\320\014\326\276 \215\034?\223\324\376\277\264\227\221=\344?\264\276\372dw\277\306\240\017?\320\230\201>/\315/?\266W\262\276\303\017,