node {
  name: "MobilenetV2/Logits/Conv2d_1c_1x1/biases"
  op: "Const"
  attr {
    key: "dtype"
    value {
      type: DT_FLOAT
    }
  }
  attr {
    key: "value"
    value {
      tensor {
        dtype: DT_FLOAT
        tensor_shape {
          dim {
            size: 2
          }
        }
        tensor_content: "\2160\214>\2160\214\276"
      }
    }
  }
}
node {
  name: "MobilenetV2/Logits/Conv2d_1c_1x1/weights"
  op: "Const"
  attr {
    key: "dtype"
    value {
      type: DT_FLOAT
    }
  }
  attr {
    key: "value"
    value {
      tensor {
        dtype: DT_FLOAT
        tensor_shape {
          dim {
            size: 1
          }
          dim {
            size: 1
          }
          dim {
            size: 8
          }
          dim {
            size: 2
          }
        }
        tensor_content: "\274&\345>\2638\355\276u\226\275>c\014\324\276\231\271\237>\331\320\324\276\226vD\277T\3769?\330\306\361>\260\032\356\276\366\373/\276Y\300\202=\336\\\307>\237-\001\277w\347\370>\374\324\376\276"
      }
    }
  }
}
node {
  name: "MobilenetV2/Decoder/concat_4/axis"
  op: "Const"
  attr {
    key: "dtype"
    value {
      type: DT_INT32
    }
  }
  attr {
    key: "value"
    value {
      tensor {
        dtype: DT_INT32
        tensor_shape {
        }
        int_val: 3
      }
    }
  }
}
node {
  name: "MobilenetV2/Decoder/ResizeBilinear_4/size"
  op: "Const"
  attr {
    key: "dtype"
    value {
      type: DT_INT32
    }
  }
  attr {
    key: "value"
    value {
      tensor {
        dtype: DT_INT32
        tensor_shape {
          dim {
            size: 2
          }
        }
        tensor_content: "\000\002\000\000\000\002\000\000"
      }
    }
  }
}
node {
  name: "MobilenetV2/Decoder/concat_3/axis"
  op: "Const"
  attr {
    key: "dtype"
    value {
      type: DT_INT32
    }
  }
  attr {
    key: "value"
    value {
      tensor {
        dtype: DT_INT32
        tensor_shape {
        }
        int_val: 3
      }
    }
  }
}
node {
  name: "MobilenetV2/Decoder/ResizeBilinear_3/size"
  op: "Const"
  attr {
    key: "dtype"
    value {
      type: DT_INT32
    }
  }
  attr {
    key: "value"
    value {
      tensor {
        dtype: DT_INT32
        tensor_shape {
          dim {
            size: 2
          }
        }
        tensor_content: "\000\001\000\000\000\001\000\000"
      }
    }
  }
}
node {
  name: "MobilenetV2/Decoder/concat_2/axis"
  op: "Const"
  attr {
    key: "dtype"
    value {
      type: DT_INT32
    }
  }
  attr {
    key: "value"
    value {
      tensor {
        dtype: DT_INT32
        tensor_shape {
        }
        int_val: 3
      }
    }
  }
}
node {
  name: "MobilenetV2/Decoder/ResizeBilinear_2/size"
  op: "Const"
  attr {
    key: "dtype"
    value {
      type: DT_INT32
    }
  }
  attr {
    key: "value"
    value {
      tensor {
        dtype: DT_INT32
        tensor_shape {
          dim {
            size: 2
          }
        }
        tensor_content: "\200\000\000\000\200\000\000\000"
      }
    }
  }
}
node {
  name: "MobilenetV2/Decoder/concat_1/axis"
  op: "Const"
  attr {
    key: "dtype"
    value {
      type: DT_INT32
    }
  }
  attr {
    key: "value"
    value {
      tensor {
        dtype: DT_INT32
        tensor_shape {
        }
        int_val: 3
      }
    }
  }
}
node {
  name: "MobilenetV2/Decoder/ResizeBilinear_1/size"
  op: "Const"
  attr {
    key: "dtype"
    value {
      type: DT_INT32
    }
  }
  attr {
    key: "value"
    value {
      tensor {
        dtype: DT_INT32
        tensor_shape {
          dim {
            size: 2
          }
        }
        tensor_content: "@\000\000\000@\000\000\000"
      }
    }
  }
}
node {
  name: "MobilenetV2/Decoder/concat/axis"
  op: "Const"
  attr {
    key: "dtype"
    value {
      type: DT_INT32
    }
  }
  attr {
    key: "value"
    value {
      tensor {
        dtype: DT_INT32
        tensor_shape {
        }
        int_val: 3
      }
    }
  }
}
node {
  name: "MobilenetV2/Decoder/ResizeBilinear/size"
  op: "Const"
  attr {
    key: "dtype"
    value {
      type: DT_INT32
    }
  }
  attr {
    key: "value"
    value {
      tensor {
        dtype: DT_INT32
        tensor_shape {
          dim {
            size: 2
          }
        }
        tensor_content: " \000\000\000 \000\000\000"
      }
    }
  }
}
node {
  name: "MobilenetV2/expanded_conv_16/depthwise/BatchNorm/moving_variance"
  op: "Const"
  attr {
    key: "dtype"
    value {
      type: DT_FLOAT
    }
  }
  attr {
    key: "value"
    value {
      tensor {
        dtype: DT_FLOAT
        tensor_shape {
          dim {
            size: 336
          }
        }
        tensor_content: "\311F\251>\274\202\334?\005Dn?w\232\030Ab\347\227@\364\003\336@\374\276\256@T\021\017A(A\300?\363\226a?\321!\001@rE\"@}\2529?\2774\344@\016%L>7\330\226@k\020\374?\026\335^?\016\357\250@\334_\026AE\202\343?l9D@\373\342\320?\023R\016@Y/\rA\023\021+?\0013\227@A\177\025A{O8@NL!@\225\332\217@\255^\230?\'4\377@[\324o?OdG@\360\323\312>\02071@~\323BA\2545\201@\022\257i@\326I`A\025\243\303A\003\326>?^7\241@\000\365\364?\204\341\304@\257\205\201?\237\306d?\204\241\350>p\236\037>\234\211\3455RLA@kQ\211?A\331%A\330\264\017@\374\322u@\332<\003@5\256\323=^\003\327@\361\266\372?\301\332\314?Xn\251>\251\242X?\351\365\300?\r\2105@g\316O?\344\205\371?\305Aw9E\335\tA\261\352\n@\001\334a@>9z?*\344\216@aJ\014@\340\201\244Av\224\177>\253BS?\017d\002@0\245>>\277\322H?\376}\221@CBv?\\HY@\007\325I@\337\237\217@nY\350?\267\315\034@\250iL@\330&\347>e\277+A4\251\250?\300\340\177?\251.\226>\237\263\006A\360%\001@\301\357\004A\225\337S?\230\263\037@\344a\237@\021\370\227@\023_,@<\266\376?\022nL@R:\244?\370\360\222?=z\257?\256\204\332?\235-\330?\023\007\340@E\017~@\'\245\271A\333:\360@\251\267\212>\247\3070?|\036\253?\317w\336@c\032\246?\317o\311?\2616\260?Gzg?\210\n\224?v0\374@\315\257\'@2\002%A\022\023\254@k;\313@\236[\351@\366\032\257@\001?\250@\323&\371?\340K\035A\215r\307@\370p\377>\253\001\237@\r\204\24266\325\250@3\010\245@@\210t@h\240\220@\002\024\037@\260\225\013@\315\r\272@\035\227\033B$\257SA\177\005\263?T\254$?\372\262\222@\253\264\362>\235]\276@\252{{?|YV?\204\274\261?\330}nAe\377l?cS9@\007\362o@\3573\033@5\006&?\262\376\274@\233o\005?\353\007\203?2\213\006Aa9m@V\365\233>$\253\007@k\254\211>\306\222\354@\020\221\205@L\\\211@\n`\010At\276\013AM\270V@\036\221\333?\341\221\332?\253\275\025@+\343\241@(~\206?\366D\000A\250t\242?\343\214!@S\331\203@\316\314\205@\326\276\235@\034K)@\346\302x?\307\324\354AZ3\016?\177\254\204@\t2\334?\365\245\276>\031\220C?\347\326\205??\253\311?\340\326\013@f\262\315?\r\372\350?\027\350\204AQL\275?\257x\257@\311\3360@\311\260\255?\217ya@O\337r?\303\245\204?\235\022\206?\325\377\274@G~FAD\314\205A[x*@\274\250\370>o\000\205@\353\361)@\243\317R?\324d\253?\302\257\213?iM\266?\n\340\367?D\215\022@\013\220\032A\3370t@\201\035\223?\332}\220@\350\016(@`\033\000@\016\242)A\252\332\205?\004+.@W\274\243@\251\215\000@o5\256@?Q\320@\357(\375?\321\230\020@\032S\351@_\221\313@\355\204\t>\301.\302>\372\203\327>\356Z\350?\254\322\314?{\205\000@p4\021@\360\t\345>\033X\224?\021\220y?y\022\350@\270p\275@\216\274\354A\307n\322@\007\004r@\3716\206A\202r\223@F26@\377\220\326@\310\302VA~\327\256?\227\021\352A\023\r\032@\353\251|?[\010\346?\253@\027@\234\003\274@\357kB@\252\303\201?+*\277@u<F@\332\321\352@\340\227\243@\312X`?=}\346?\355$\213@\302\177\222?gh\010A\023\311\273A|\312\213@\356\223\026@\345l<>\343\371\220?\303\304#@\323\200A?nE\026A\036\331\262?D\235\272@\303\tU@\205\t-@)\371_@\303\320\263@\366\207\340?Q\252\303?\215\304\247?\361\227S@]\322\006?~\322\230?\251F\264>z\016\021?\024\330:@O\"u?\017<t?n~[?\366\355\006@\221)\344@/\352\303?\006\231\226A\005\375\377?bQ\261?\030\201\251@\"@\207@b\242)?\204\002\020@\031\313\215>r\311L@\255\276\244?\350\270\210A$\221\213?\361$\212@\016\375&@\256\231\023@wi\256?`_r@6\010\221@\245<\037A\304\014\230?\341\256{?\202\206\001@\231q\"A.\333\262@\223\234A?\214bN?/4\221A>\3641A\363\251\322@\353Y\277@\372\247\222@\376_\360?\303\326\327?\n\371\222@"
      }
    }
  }
}
node {
  name: "MobilenetV2/expanded_conv_16/depthwise/BatchNorm/moving_mean"
  op: "Const"
  attr {
    key: "dtype"
    value {
      type: DT_FLOAT
    }
  }
  attr {
    key: "value"
    value {
      tensor {
        dtype: DT_FLOAT
        tensor_shape {
          dim {
            size: 336
          }
        }
        tensor_content: "@A>>\247tf?\375\034\016?\253v\003\300&\364\235?\310\035\301?\277\222\347\277\314y\237\277h\363\025\277&\332\356>\274\224a?E\301\213?k\210\310>O+D\300\026\r;=\355\302\260?\263R\030?\203\253\010?\215\226\257\277\350\023\007\300\0311\017?\313\232\222?\323e7?h\n\211\277X\203\277\300s\274\253>\177\300\212@\336-\213\300p\360\202?/g\206?wF\220\277\364\377\351>\3742\355\277\014\240\032?\247ws?\236\273\030>\241\371\214?\020ln\300l\356\244?\311\232\347?B\037\255\300_\342\201\300h*\256>\313N\341?Fc[?\374\367\265?r\200\367>\264\245\305>{\325\231>\232\224\026>\230x\2568D\307U?\274\303\031?\023g\202\300\305\226j?N\257\271\277\035\356\203?\367\233\304=\261\002\310\277\215\357b?cnO?\016\017{>\311u\306>4\210$?xk\260\277+!\017\277\027\002\035?\206r\227;T\341\226\300\353\025G?Q$\237?;\027\003?\231@\232?\321\251s?\365\302\021\301\205s\022>\344\300\347>\313\005:?_\014\355=\344|\362>\350\010\342\277\224X\351>!\010\210?\300\246\210?T\\\007@\240j\225?\367\227s?m\272\246?\253m\223>\271\036\211\300\336#\361>\330r\307>A\206S>G\240\n@\312\251`?\016\351~?K\320\266>&\366\262\277\303\216\004@T\272\357?\322\201p?\034\323~?\356\336q\277~p\020?\306%\002?\003\0271?q\235\017?2\210(?\002\211\247\277\2364\324\277}+\215\300\024\247\035\300/\373?>}\227\256>q\341\027?L\031/\300\027\370G\277\022\212\013?\035\224I?\370k-?s\346\037?w\206\343?\034\325|\277\347<7\300\217h\360\277\255PQ\300\323\352\016@2D\027\300=\214\243\277=\r\"?\010\367<\300\241je\277\267;l>N\247\265\277P\30339\263V\344\277\243\313\243\277UG\271\277\210\312\365\277\033GW?\177VR?\036:%\300\253hK\301\033\277\277\300a\017\021?\200\266\252>\360M\r\300\331\326\217>\205\027\002\300\014\206\363>6\244\216>\357\347\"?y\263\205\300\033=\270>7ZD?B@\336\277\032Cg?d\014\202>E\264\002@\237`\262>l\240\300>\232\352\224\300\265\351\324\277k+G>\203\262:\277\001!t>\227:\271?\035\237\256\277\371\365\254?\346\025\023@\014\273\220\300\323\327\220\277/fh?L\2738?\237\3556?\345\373\330\277\017O\336>\234X\332\277\033\337\017?\364V\026?\010\014\215?\256u\271?\273c\316\277\006\200j?:\275\335>\236:\030\301\263\276\204>\340\346\332\277\371\030W?\266\353R>\277`\263>SR\334>G&N?BO\366>\335\222\367>Ii)?\007\367\323\300\233\272\031?\254A\273?\226\312\227?@\232\030?\241S\341\277\242\230\010?\303M\252>\227\240\001?\214\277\307\277\020\021\273\300K\365z@\321\034J?\336\237\222>\357\371\332\277\337\375d?\222|\020?\3321M?\204\205\016?\200\301,?>\322S?.\265J?\361\317\032\300\331%\352\277\013O7?\340D\254\277\270\222;?<\330)?\302\tn\300\356\030\010?Z\326\311?Z\2639@\360w\037?PA\262\300\277\357\316?\331\2610?\271gw\277\177\274\304\300F\262\300\277U\303\017>M6\256>x\205b>\253B1?\014\2763?i\332=?}\326E?\250\312\201>\241\350\035?q\375\007?k@:\300)\225\004\300bV3\300\233\275K\300^1\232\277\375a\227\300\323\346\305\277\256\001`?C\301(\300\025g\016\300\220\r\000?\004!\202\300FXA?\370\021\014?`\007\200?\302H;?@V\n\300\272\332g?\320\013\002\277\306\232\323\277b:\267\277\032<\363\276\206\313\370\277\372$\342>\324\377I?\345\242\255\277\251p\352>>\0223\300\036\004z@\252\270\313\277\010\351L?\251\340\031>\321\237\026?<\3156?#.\313>~G\300\300\353\341\022?\003\226\306\277\t\034\224\277&\367U\277\237\231\304\277\344)\364\277.T!?\307\207\345>\331z\014?=Q\221\277\323}P>\266\252\353>\240o\231>\377\354\320>\307\352j?&\206\033?\037Z\316>O3\374>\304\210Q?\337\362\342?\255\330;>\"\177\365\300\220\216L?\370\260\t?\275\264\355\277&\306\202?\367X\230>\342*I?\330\"E>\2457\201?\033\360\005?\301`\354\300\351\371\025?\350\014\276\277g\263.?\363F\257?65%?\344\220\222\277t\276\'\300?\026y\300\310\212\331>\302{\014?\235R1?\270\305]\300a\261\314\277\306\242\343>\2122\203>\003\314\020@.p+\300P\005\\\300\255\2020\300\373i\252\277\367}A?7\3127?H\313\240\277"
      }
    }
  }
}
node {
  name: "MobilenetV2/expanded_conv_16/depthwise/BatchNorm/beta"
  op: "Const"
  attr {
    key: "dtype"
    value {
      type: DT_FLOAT
    }
  }
  attr {
    key: "value"
    value {
      tensor {
        dtype: DT_FLOAT
        tensor_shape {
          dim {
            size: 336
          }
        }
        tensor_content: "9d~>P\362\032?#\007\016?K\031f\276\255\rN?~_J?)\367\223?U\177\177\276\205\362o@!t\021?=r8?\241\314\272=&\243\271>d\250^@S\033\304=\354\030R?\252 \007?\342\025\025?\371@\000@\'K\233?\346Y\370>\230\276\"@\271\223|=\3359\037\300\002b\333>2\331\253>\323\230\001@\374\310\213?\231\257l?\301\325-?\367\306\000@\025Mf?\363e\335? |\004?\224\302\"?x\0243>x\350@?\3760\013?\225\374\037?.\221\245\276\0271\231\277<\022\216@\376\315\266>\002\260\025?Gi\036?8\263\311?\250\\\377>\030e\231>S\230\312>l&\217>8\014t>\316\364 ?\231J\"?G\013\247?Q\272\351>\276\254\016@\344\310\322>V\334\272>;\353,@\323\364\007?\360m\014?>~\247>\217\366\306>\\\372\026?\274vr@\246\217Z@,\020\t?j\260\244>\375\334\201>{\364\237>\200x<?\271\355\342>\350\2737?\027\331.?\006\271e?dF\322?\351\276\354>?\001\017?\215\024\'>\\\371\026?\316\364\353?H\364\340>\241\026\332\277\201\332\014?\2518S\277\376\2106?>\3103?\306:\346>l\363\323>\021\335\271?#\343Q\276\227\327\363>\345}\366=\006\367\031@1\261\357\277\266\351\362?=\311\315>\213{\304?\363|\255>\303\233\213?\257\230\246?)\256\300?\276\364\003@\021m\306>W\337\020?\203V\275>5\226\357>\366\225\307>\350\252\375?\261\246\025@\214\345\006@\004\321\026@hr\222>\021\225\270>([\014?T\220\005@nv!@\343~\315>_\311\231>U:\032?\271\252%?\332\031\351\276\020\345\021@\335P\344?\023\034\212?/>\275?{?`?\265>p@\203\272\227?\325f\017?\312\223\272?-\355\355=\351j\241>\356Vf@B\215)>w4\024@\347\"\006@\332\335\220?\355\323V@\304\024\306>\243Y\021?L\352q@\206Y\357\276\210\365j\277\264%\331>\365\t\330>rYS@\334\006\230>s\264\221?\267\304\322>^\301\275>X\313\001?\273n\236?\302\222\210>\267S\217?\221??@l\0214?;\350\235>>\203!>\267Q\315>\261\320\342>]\204\225\275\315\033\014@\322\343\234>\262\275e@;\371\231>\020\205\033?\222\324\334?\212\367\242=\3661\213?\225~u@-~r@\2259\034?u\205\003?\253+\030?\023ot@{\365\342>\247|\207@\242\035\017@\013\014\367>\000\266D?\354\014#?\t<\003@>f\032?\235c\320>\343\361(\276\301U\223>F\025\034@\307\027/?\3421\303>h\271\306>\375u\340>3\023\032?\341\300\363>l\307\343>?\035\313>\t\215.\3002\020\022?\257\336T?\375\330h>\306\211\300>E\323\210@k\321\n?\344\233\216>Oe\357>.5\342?\314c??\004U`@x\340\r?t\263\256>\336\345\t@\316\005\034?\036\004\024?\333\364\016?\036\352\014?[\322!?\024\273\035?\037\263\256?\351\264\231?\255\255\362?\340p*?1\203\002@tU\303?[\273\375>\330u\n?\341,\n?\010\337A?7\242\373>:\364\007?jEm?o\323 ?\303\334\316>5\0360@\254Q\311<\210/\001@\255\002\246>}\274\275>\253\227\177>\363f\002?a\240\367>\354T!?1k\000?\340\367\257>h\314^?]\213\305>e\213d@\303:\275?\345,\232@\246\262\\@\362\377s@]\335\035?\216\221a@}<\266?\365Qf@\300\220P@\337)\363>\236\317\230@\303`\355>\361R\010??\257)?=\020\017?\312\317\335>\021o\035?/\366\336?t\313\001@\014}\212@\025\304r\274`\251\337>\226\214\013?\023z\t?a\264\253?S{v>\262n\236?\276*{?\003V\307?S\204\020?yVb>\000\260\016?\210\356\035?\362\341\271>\030\347\211?\224\000\352>F\267/?\225$\004@\247\317\206@\020\2421@\375\342\211@\332\242\353>\320\222\002\276:.\341>\n\206\203@K\376\230>1\203\324>V\227\237>S-\346>\270\343\211?n\317\020?\010b\271>\3058B\275\034\035\006?\226\317\264\275\\\223\237\277\324ST\276\210-\016?\026\031\363>{\264`?.\201(?\321\346\351>%5\024?xB\250>\303\016*?\'\363\002?\372\307]?\320\341\263>\r\267\204@\316\324\022?\030\232\307\276j#\017?\0323\255?\342\206?@\020QS@\177\200\321>c\3574?\320h\022?7\2547?\033\237\206@\251\220\305>\206\223\261>\275\333\313?+\3241?\221VC@D\021+@*\036N?,\211C>\265:\t?\311\310\365?"
      }
    }
  }
}
node {
  name: "MobilenetV2/expanded_conv_16/depthwise/BatchNorm/gamma"
  op: "Const"
  attr {
    key: "dtype"
    value {
      type: DT_FLOAT
    }
  }
  attr {
    key: "value"
    value {
      tensor {
        dtype: DT_FLOAT
        tensor_shape {
          dim {
            size: 336
          }
        }
        tensor_content: "\336u7?\2666c?Y\242r?\322\255\032@\271=\206?\276\037\210?\033v\271?\320O\030@\003\004\206?y\023r?\252T\212?af}?\252eG?\257\374}?\367@\272?4\213\213? 5l?1Kt?\322\232\252?]U\334?w\357q?\232\037z?\340\264\227?t\rE@a\333\364?\224\313P?\262\240\263?MX\237? \216\240?J\364p?!_\236?A\206x?\252\035\314?\372\210d?\0339h?\177w)?\352\025\214?\027\234\003@\204\035v?\363\371\222?91<@\r\321\322?z\030\205?a\006t?Z\"l??E\262?1\374_?^uj?d\355S?<\271I?>\217\037@\210\177y?\314^\202?\245\315\247?\034\340_?q\322\205?:a\220?a\226j?i{\207?\203`f?\037\213b?\001|T?\371^C?o}x?5\271z?\302\035\202?\272\323r?\031\017\352?\223\204\327?\353]\275?\335\263h?\371Yp?wsp?\367\007p?\246S\314?\352\177\254?\256\024M?\221\273`?\266\371!?\376S\200?<\202\222?\273bJ? \351\331?\250\331Y?I\373\260?\247-s?J\256~?\252\230]?\025\032\232?Z\234\221?\226\264\253?\267\023\212?\203\263Y?\030\331v?\t\336\331?\227\002|?G\327z?\373\031\210?\250c\220?\353p\220?\353\024\203?\311\310}?%\226\203?v\345T?Y\001\232?\0330c?w\254X?\350\2558?\344d\236?\220.\221?\276\344\374?\324\313x?\0202=?\311\002B?\320oq?\201\332\215?\255m^?\246\354T?\322M\211?\1770\201?8\272\201?\270\367\260?\253\271\253?d\350\230?\r\204\316?z\262\253?S\246\255?\005\240z?\221(\314?\256Kv?\334\254\244?M\035\347?\3440d?\256\330t?@\335\355?\3476|?\001\374\267??C\324?\017Cd?Z\200\214?R/k?\025\302t?\017K\016@\364\254$@B\320Z?F\241b?\224\372`?(\201Q?\'\256\262??\343`?\177\355g?Z#U?\230\246\242?\347,\037?#\310\203?C\030p?%(\204?x_K?\240\277\345?<\034V?]Fc?\214\324\344?2\336l?\221\210I?\334Z\207?c%7?\302\350\215?\214(\256?E\005\207?l\376\201?&\024\221?.\021s?\252\"d?^m_?\237\253}?\267\232k?\271\325a?J\245\212?0\321~?\270\016l?\274\366\207?\003\343K?7\250\247?m\371a?ori?\273\037\370?~\206@?l\353\213?8\350z?\361\000\207?\313;[?\363\216l?@\364n?\245\243\220?L\303\204?\303@S?P\327p@\352\373x?udx?o:\275?\264r_?\356\225q?\327\263\213?\206\360D?\325\'L?\306B\304?&\323\264?$\177O?\223p\217?\275\372F?6_\246?\273\307d?D\316d?\373\216`?\001\"\\?J\352\203?\373\246p?\240z\202?\347\224\357?\\\266y?\317\272\200?\234\325\202?@Ay?f\333e?\341\243\341?\264Lw?\360\336\204?`\035\266?\356,p?\367\007\250?\332\017k?\243lo?[\323\222?\256\027\353?9}\226?\372?A?\373\022<?\301<E?\252jY?\300?k?K\010\205?\240\373Z?\224\005V?\\\210i?m\006\204?\r\353\206?\203\\\245?1\261\350?\305\352\200?\360Ov?\343Z\317?\'Gf?\tR\203?\275\332w?\334H\332?\211\201d?\333]\274?\327\345K?<xp?%\010\\?R\365t?\265\335\007@\206\031r?\364m\031@\370a\230?d\251{?FP\345?\375\221\014@/h\201?D\262a?-V\376?\206\322_?\311<\241?\001\036\276?Dp\252?\277^}?{\350 ?\222\266\\?\224|\250?@oJ?\245\r\232?\224\333S?TX\027@\376\001\224?\014\223q?I\233w?\207\272g?\253\354T?\177RS?\030\253P?\363\004n?5\273K?\327\026I?\261M\'?\320\240\216?\330\310\206?\301\322\201?nzN?l\360r? D\\?+)\313?\355\305\356?h\366\027@\314\032O?\000\027r?\254\216\376?*W\210?`\335\261?\021Dx?&\351:?\367#s?\223\325\211?\305\345\316?o\035b?m7t?\232\353w?\273_\202?=\220o?}o\005@L\025v?\337Ey?a\260b?C3]?\206\356q?q)\307?\030\205k?\202\026U?qc\210?rs\214?\363\231\017@\364\215\214?\361\342\201?\300\342&@\336\346\230?\245\244\215?\353\212\253?"
      }
    }
  }
}
node {
  name: "MobilenetV2/expanded_conv_16/depthwise/depthwise_weights"
  op: "Const"
  attr {
    key: "dtype"
    value {
      type: DT_FLOAT
    }
  }
  attr {
    key: "value"
    value {
      tensor {
        dtype: DT_FLOAT
        tensor_shape {
          dim {
            size: 3
          }
          dim {
            size: 3
          }
          dim {
            size: 336
          }
          dim {
            size: 1
          }
        }
        tensor_content: "[C\005?p\004\031?h\177&?\324\344x?\334\036\022?\325K\027?:\244\033\277\313\010\306\277V\'$\277\214\030\037?o\311&?\217\034\026?\377\301\004?\017\225\000\2775\020\261>p\360,?}\357 ?\246\300\037?6~\'\277\203z8\277\371&\032?\301\331\337>\367\024\005?)O\034?dT\332\276\225\206\030?\371\363S=\340R\005\277\230\037,?h\030\021?\032\276\036\277\241\336=?\367\324/\277\275\265 ?\363:\033?\251\374\352>\376\334\014?yG\030\277\306\0248?\"\226\'?\311]\023\277\320\353\202\300[\255\034?>2\005?sH$?\302\307\031>\262X\032?\327\372\002?\377\022\022?\003\367\001?\202\334\006\273gB\025?\313\362\030?\235\303\013\277\360;$?{w\036\277\355\377\022?P\324\003?Yt,\277>8\025?.\031\356>\243Q\352>xw\026?\177\324\025? \367\010\277R\"\030\277\303\261\027?\324\275\321:5G\365\276\3364$?i\232 ?\350l\025?\316Y*?6\256\024?\336\344\005\277\322\334\"?\r\000$?\030\020\037?<s\336>GU\026?a\215\005\277\267\333\016?b>\032>\351\305\032?M`\326>\2468\037?A\376)?\351\255\026?]\342\027?\305D\025\277\2704\026?\005\315\037?\335\304!?\276A\'?\275\352\315>>\205\005@\236\315 ?[\317\004\277\372\236\005?k~ ?\374\211\035?\036-.?\033B\034\277\247_\363>\205\234\037?|N\023?\312\254\027?\261\250\032?\275\032\255\277y\222#\277\361\362\037?\252\354\376\2763\276\032?v\324\000?\254\016\035?\017)\031\277\277\023\006\277\321\0354?9\037\"?2\254\036?\345\340\026?z<C?./\034\277bS\026\277U/ \277\240\252&\277\212\360+?\200\010\004\277\342R\027\277\025h$?\212\035\377\276I\204\227?\325\036\036?M\321\033\277\322\345\021<\237)\010\277\203v#\277\314\260$\277\247\203\365\2766\0266?\031\370#?\341\326\030\277|\036\335\276\334\223\033\277\352u\005?\032\333\020?ih\010\277!\306\005?\345V=\2779}\031??h\020? \212\033?D\247\005\277^\205\024?u\374/?\314\347\017\277\224\231.?\206\276\t?v\220\032?\337\'\031?\027\256#?\217\355\370\276K\332\021\277\260\\\024?A\226\024\277[\216\016?\236e-?f\017,\277\340\253A?~\327\004?\212=\026\277\257\303!\277l\213\337>1\255\'?\024\014!?\r\273\366\276\317u\034?:\3458\277(\262\024?=\317\032?oX ?\257\237\346>\200\231-\277Q\2124?o\225/?\203\270!\277\377\367\035?b\202\017\277\201$\035?=\200\025?X\204\021?`\373\r?d\304\026?\001$\317>\254\'c?@\335 ?Ae\344\276\257\251\025?\337\364\031?A\205 ?\302~\344>74\001\277\214\310\005?\256\200\035?5\214\r?*\2233\277\311\'\032\277\202\220\016?L\010\020?\227n\034?\244\352\024\277\232\332\'?\215\340\035?\000\370\035?6i\020?\365>\031?\226\365\004?\363\311J?.d\216\277tN\373\276e\335\024?\300\371\021\277J\237 ?\214w\026?u\372\017\277\301\352%?m/\001?\014\255\r?q\275\035?\004\224{\276r\007\026?\377\264)?\362\201\013\277\'\206\336\2769\004\'\277\300\030\t?\261a\032?\342P\023?;\034%?^\203\034?\366\224 ?[\001/?\275\376\013?H\305\037?\327J\013?\336\234\003\277[&\324\2764\3756\300I\256\010\277&\254\034\277\361\304\030\27790\016\277\254\340*?\202_\017\277\026\322\360\277@\346\023?\315\316\325>TX\035?\371\264 ?\342V\037?68*?gB\026\277\326\276%?\207-E\277[\362&\277\356\200\021\277\245\346\200\277?\264)\277\234\216\036?\030f\027?d\354\027\277\246\r1?\357\251\025\2770\024\'\276%\235\020\277*\177\037?\016\242\354>\357\344\013?P\264\037?e\211\013?\223\014\000\277+\265,?=\014!\277-n\037\277\024\301\002\277\037\317\024\277\303\355\031\277\236\321/?S\265*?\237\017\026?F\330\037\277s\347\030?i]\021?Fy\013?\325\224\033?/\025.?nD&?\244\256\014?GQ\n?.+.?{]\016?\301]\007\277\001!\370\276e)\033?\220\300 ?\344]\025\277\222\305$?\335\016\034?\267I\r?w(\022?\371\275\030?D\034\016?\273\230\343\276\010;\002?\375\224\036\277\2563\037?\355\035(?#\353\035?\374\005#\277\223\351\021\277\267\225\026\277\213\275\027?\021U\030?N_\n?\"\306\336\276\204\250\t\277X\227$?\255\205\005?X\243#@\014\311G\277\376\004\032\277\216\376\002\277\334\256(\277$\310\014?U\225\037?F\306\"\277oi\335>P\267\023?\312\205\023?\355aU\276)/\t?6\360\020?\316\374\004\277Qe\315\275\327(\r\277\243\354\376>\261\270\374>R\033\020?\367\207\317>l\266\006\277^\211\254>\302\010\034?\340\220\004?\364\024\t?vA\020\277\016\030\020\277\251m\001?\251\r\324>\227\026\354>@\"?\276\377\030\022\277\217\375\007?aE\301=\332\325\r\277\017\317\031?\273:\004?\224\036\345\276\211\260\"?,\302\n\277\301\333\006?\370\360\005?i\356\331>\217\351\364>\275\341\342\276#v\013?\021_\010?%\330\360\276\001\313\250\276\177\304\005?\237\212\034?Qv\022?\210\206\255\275\t\301\017?\307V\305>(\236\353>\362A\005?\226\006X<\3659\352>\032\005\355>qQ\032\277\267 \010?\3130\017\277T\017 ?\320\260\336>\201\322\367\276\032\353\331>:F\020?0\232\325>\3166\003?\023\020\003?}\364\n\2773e\006\277\371\005\004?\324F@\273\023\331\017\277SX\n?\233\214\024?B\t\003?\231]\r?\001\343\377>}a\027\277\357\346\337>\356\316\345>V\002\000?\323\345\304>l\324\016?\014q\n\277\233R\007?\020j\030?\277%\004?\022%7?\301J\t?x?\025?\253t\373>\354-\000?\000\342\016\2776&\'?\257\211\021?u\001\372>O\223*?`\274\022?\374R\312?}\325\366>\2042\373\276\363-\"?\r\273\030?d\256\006?\310\304 ?\223,\004\277N\225\324>\036(\030?\262\367\r?\374Y\010?\361\275\344>\241\267\267\277\272\201\025\277n\274\206?\026\n\024\277\217M\002?\272\310\323>\271\202\r?\027\024\020\277\020A\335\276\366\353\024?+\224!?\272\233\007?\027\200\365>\253\333\323>&\204\004\277\350\304\010\277[j\001\277{\206\n\277=g\362>\325\216\014\277\234c\321\276\306\321\353>\031\364\001\277\310\022]?\240\316\351>\260E\t\277fM5=\311\306\032\277\363\000\007\277\340b\366\276\260\277\362\276\305\245\013?\370}\006?\364$\366\276\211\0278\277\311(\020\277\376\006\r?\324\326\333>\034\206\n\277\212x\373>\353\305\000\277\2017\000?\027\306\367>\243\007\021?k\302\007\277\264\033\027?\023k\024?!2\363\276\323\366\014?\\\376\360>\222\2056?\267J\377>\317>\357>\315[\366\276\260Z\372\276h\032\363>\351\306\006\277\232\326\367>C\221\021?\231\306\010\277\204\314\005?\tz\022?\244L\027\277_\327\020\277\001Z\014?j\362\365>\242\024\004?\370\311\006\277VR\001?\366~\007\277\2072\r?\330\315\004?|\345\n?\313\017\010?G\347\375\276\026\277\021?D\264\002?X\337\030\277<M\037?\307p\365\276\030d\031?|3\t?Ck\366>\350\313\343>b\271\262>\264\r\r?\250\272:?\227*\001?\365\374\325\276\200 \366>u\325\374>\203\371\r?\025\372\333>\347\375\016\277J\264\r?\234\001\004?\210n\010?\207\036\022\277f\300\005\277\350\247\311>u/\021?\020c\006?M\317\004\277O\315\022?\303\230\017?:\016\017??\267\324>\347\220\360>O)\007?\362\224\021?+\267\220\277\026\003\346\276\"\266\020?f\214\005\277\342\216\010?\211\331\005?J\344\366\276\307\034\340>\3151\"?\0338\032?4\021\022?\316\277\021\277\205\014,?F\322\270>\352i\005\277\330\026\034\277\362B\022\277\313T\343>R\316\336>\267\351\t?\2637\312>\263\364\014?1\331\005?2\246\352>\251\010\356>\377\320\004?\020\001\377>\374\324\030\277`L\"\277\270n\242\277\306\364\t\277g\245\025\277\255\347\n\2772\324\026\277\345\245\004?\033\253#\277i\356\245\277\002\206\024?7\257\325\276\361\276\361>1\210\016?\241\233\013?\3461\034?\276\007\361\276A\235\377>\214Q\307\276\246\323\003\277\271\213\020\277o\263\016\2774\304\320\276R\243\006?B\307\006?\251\205\001\277\361\374#?\221o\001\277\335@\366\276\217\n\317\276[E\005?h\377\251>\370\321\004?c0\364>\351\354\357>*\177\016\277\267!\001?\255l\334\276t\331\014\277=\262\372\276\206\330\331\276\316n\'\277\372\324\334>\327\314\032?\273\030\376>\311\377\013\277\202n\371>\212d\357>\355\024\360>\021x\r?\265\312\003?9\355\333>\024]\363>A*\301>Y\366\002?<\304\026?T\246\200?\034\370\002\277\3668\004?w\371\023?D\022\371\276hW\030?\020w\334>\024>\362>d$\006?:\204\363>\363\354\006?\343P\032\277\034\315\003?\363[\026\277\201\n\022?1\332\372>5\343\001?#<\273\276@\355\027\277Y\014\023\277\016\311\354>\274\337\022?\372p\341>\260\345\361\276B\005\016\277<c\341>\314T\274>Tu\215\276\357\316\033\277\255\332\007\277\307\332\014\277\246\005\330\276vO1?&\300\027?mE\007\277\312\200\367>jm\021?\273H\034?\022\263\314\277\303\221\006?@\272\020?-\261\022\277K?x?\"\212\032\2774\245\027?!}\032?\210i\020?T\262\377>\014b\345\276Kc\023\300\351\205&?\225O\024?\365v\024?v\035\032\277\354\354*\277\356r\023?\315O\315>_`\000?{\246\\\277jZ\325\276\340 \020?\005\037\205\274\034\013\365\276<U\"?yh\006?\277g\014\277\34460?-\014\'\277X\220\024?z\255\021?>\333\327>I\356\003?c\232\017\277\261\3031?\353\321 ?fk\007\277\351\201\335>C\316\020?\362\216\360>/\277\030?\340\232\302=\226z\022?\374\002\364>\252\343\005?e\014\344>3r\272<W\010\010?\000R\022?\n \366\276+\307\037?Oi\r\277\335l\n?\356\376\373>\374\237&\277\t\250\003?\332C\344>\314h\333>\363\373\r?\207\360\017?~|\000\277\245_\020\277\237\253\r?:\"s\271\275]\324\276{\203\"?_U\021?\355J\014?4W#?\306\357\n?B\335\355\276\036\234\026?\037\233\032?\337\372\027?\330%\332>\257\347\t?\301#\373\276\031\235\002?\333\231\035>8\004\014?w\234\314>\017,\031?\037K\036?\026\246\t?\267\312\014?Zw\022\277L\351\014?\316\"\024?\242\322\027?O\324\026?\223`\271>[r\376?\340\214\021?\215|\366\276}\374\353>\374E\021?f\202\021?T\343!?J\327\014\277\373\'\326>\013\251\027?\315\037\n?\3347\r?#O\027?4\321\262\277\211\270\032\277\224\1778?2\022\354\2762\374\r?cw\362>2\034\022?\030I\014\277O\241\366\276R\276&?\016\206\024?\221\363\027?\254?\r?\300eH?\212\"\023\277x\333\006\277ov\024\277\306}\037\277\030\345\"?\317\302\376\276\366\024\r\277\202\017\031?9\274\357\276:s\220?%\013\023?\341\320\010\277}D\004\274\311-\000\277\347\360\034\2777\371\025\277\0232\347\276&\3767?}\232\031?\264\332\024\277\010\261\315\276\271G\020\277i`\000?\005l\014?:\016\000\277\220\005\002?3\364,\277{\355\016?\266\351\014?\362D\017?\261\260\372\276\325\313\010?\257H(?\226\004\006\277\326\262\032?\241\031\001?\321j\025?\315!\023?G\311\030?\036{\324\276\327\353\001\277\243\351\r?9\261\006\277\226\345\004?8\206\037?\317\n$\277\366\217C?\323D\357>\374n\010\277.{\027\277\202X\324>+\376%?\320\023\030?\240A\362\276\022\242\022?J\236+\277\247\250\017?\3013\014?\364K\037?.F\325>N5!\277\320j.?\235?\"?>=\036\277\370\004\024?6\364\375\276\354\360\021?O\311\010?\314\252\013?\236\223\002?\362\313\017?\314\217\312>F*L?\237{\025?\"\017\337\276\3564\016?-\307\007?\n\351\036?\216\262\326>\266)\362\276IW\362>p\267\026?\032\314\005?\355k&\277\323L\023\277\362Y\363>\016^\013?\345\326\023?\374\227\n\277\024\365\032? \353\024?<G\022?2\307\r?\305\032\022?\355{\373>\243\022:?\244\250\217\277\377\023\317\276\371\350\t?\'T\375\276\366\276\023?\360\354\t?\365\n\000\277\255\244\"?[+\366>\2361\013?\006\014\024?c\235\\\276\016\341\013?\032\364\033?n6\000\2771P\345\276<(\035\277\033\370\374>\r\020\023?A)\006?\345\261\032?\323\325\021??_\026?e\350%?\353b\001?n\246\027?\331\206\021?\354\231\371\276<\213\274\276\254\2463\300\036\241\001\277L\177\022\277\312\007\024\277\323\253\377\276\322\312#?\331\336\374\276\212\320\357\277\332/\010?\361ow\300\244\021\026?\002&\025?\343\304\017?`\206\035?\361\343\010\277kn!?w\2149\277#1\026\277\241\261\004\277\361\rg\277\2701\036\277\260/\024?\364\177\014?{\362\003\277\003\214#?\307\r\n\2772\315\271\276w\313\000\277\374\350\034?[\336\337>\357&\002?\301\274\033?\230\230\375>s\261\371\276q\022!?\363e\032\277\3148\016\277\346\273\352\276\010\222\r\2774\020\014\277\241\367(?\342P ?\241\337\023?\264\315\014\277\220\221\020?C\303\007?\257\016\002?m\224\r?\266]$?\032\'\032?:\017\r?{&\006?2M%?\246\214\002?\311k)\277x\321\341\276\000\354\r?$\t\027?\301m\006\277\356\362\027?\256\256\024?\013+\376>\201\310\010?\2065\r?\235\000\n?\331\323\316\276\034Z\372>\360\244\024\277\230\237\024?wM%?\267X\020?\263\311\037\2774\341\005\27742\022\277\351:\016?.\366\020?2e\n?\363\211\311\276\363\206\374\276\326\034\035?C\304\001?Oq\"@\267G7\277ei\023\277\230N\375\276\221\211\031\277\233\301\371>Y\256\024?G\344\027\277LK\001?W*\031?\356\210\033?\352\232\220?\017\261\030?L\342\034?a\274\001\277\027\\C\277+\334\031\277z\272\017?N\024\030?\r\231\027?:e\360>\262s\023\277\017\247\320>\n#.?Du\022?\220\373\026?\300\000\035\277\355\t\025\277jH\004?f\322$?\333\355\036?\332\276(?\235\313\376\276\177\213\014?r\365\274=\234\310\t\277\347\250\037?\357*!?\216\005\034\277\255\3340?\220\252\034\277.\222\020?\0144\003?-\306\347>(\246\022?\232:\267\276\257\001\010?M+\372>\335\251\001\277\354C\022?\325\364\021?\300\227!??\374\022?f\310\365>\013\230\t?\003\350\006?\237z\007?\340\204\014?K\322 \274w\303\006?j\247\027?&\200\347\276Ar\005?>\n\014\277\374\031.?\351\007\334>\332\017\007\2777\230 ?\377\341\033?\034z\376>)\356\375>(\314\006?8\255\033\277\331\353\017\277k\310\024?\226}\276\271\250\"\027\277\277\254\006?\2601\031?\300g\032?\377\274\024?\212\341\026?\300\226I\277e$\"?\275H\032?\304T\006?\024A\333>\346\375\032?\242\343\n\277\253\354\022?3\\\001?w\274\013?\330\355\020?\235&\005?\2669\006??\275\006?\366\002\n?\376(\022\277S\333<?x*\032?\234\275\000?\021\0259?\220\326\020?\323e/>3\177\036?\036\222\354\276\335\374\032?\330\306\031?H\317\013?k{\"?5\223\003\277|f\036?\013\256\026?\021\371\014?(V\025?\214h\027?\354R\213\276N\255\031\277)\316\201\276t\211\021\277bO\022?\311\\\337>|\204\014?]\351\030\277\373s\365\276U\177\016?\026|(?\034\377\000?\022\362\010?\316\030\002?\374\"\007\277\022\022\023\277P\331\t\277\310\273\365\276\033\376(?b\207\023\277\310\221\345\276\351\231\006?\377\364\372\276N\354\001\277!\364\t?B3\016\277\276\232\215\273!]\r\277\260\\\022\277.v\354\276`\254\021\277\240+/?R\322\034?\373\270\002\277/\246\005\277\260\274\013\277\013\026\n?\005\316\021?\336}\t\277_ \003?^\244\353\276\034\312\000?\363\004\004?!\363\013?4\257\007\2777\013\035?%\341\031?\357\223\030\277\352\307+?\253\031\346>U<\t?W3\020?\001\251%?\271\245\377\276\272\264\n\277S\361\r?\366\036\"\277\306M\361>^4\031?\236B\007\277^\364\330>\362M%?\3740\034\277{\245\016\277\"^\031?\017\022\002?x\357\003?\344\212\014\277a[\373>E\020\021\277\266E\021?\375u\024?5\003\016?\247\327\r?\342\230\025\277\"O\t?\353\307#?\374\321\034\277\227\221\r?e\221\006\277a\203\034?\250\233\t?%P\373>\026\225\377>\036\007\036?\020$B?\266O7?\332\324\000?\025=\367\276\200\322\026?]\305\020?\027z\013?\272\333\020?\341\314\035\277\030\252\027?{\365\033?\022\301\004?\256Q\035\277^F\001\277\350\234C?\210W0?\347r\376>g\"\001\277`\270#?\375i\022?tT\025?\331\373\006?\323\013\373>\364\233\n?\241\374)?\316\235\022\277\311\254\016\277\023\265\022?#\022\016\277<r\013?d\351\003?\306\266\026\277c\227\027?\376E0?t\371\004?\342Z\030?V\312\025\2770\205/?FG)?\177\317\005\277\036>\016\277P\256\027\277\025\347\324>>\t\007?\345\252\022?\351\356\033?\207$\016?\265/\022?\203O\037?\361u\361>\007\264\026?\312\331\002?\306!\'\277\227u\033\277Og\241\275\021\254\024\277\227\374\035\277\376\030\004\277F4\020\277=\221\r?x5\024\277\370\300\307\275\271r\022?\225\010\200>ds\372>\205-\031?\224!\021?\277b ?9\004\334\276\026\263\030?m\333\307\276m\202\007\277\335\254\023\277z\366\017\277\317\025\361\276\017=\036?\027E\n?\022\220\014\277\240\243 ?\236]\376\276\273\202\377>g\363\010\277\r\222\003?H\330\312>o\210\027?S\214\031?\377&\010?s{\020\277\303\337\025?\250\236\004\277Gf\027\2779\330\013\277\260\355\020\277^\332\025\277\314\260/?\375\016\"?\242Y\375>t\313!\277\0257\021?\364\026\016?(\020\366>\241\003\023?-;\003?XM\035?XM\022?\264\266\344>\003\256\002?\215,#?\307h\223\276\260D\366\276\376>\006?}\231\031?\000\311\006\277\342L\031?\327\213\021?\020c\374>\326\333\376>\337\313\014?\207\335\021?\r\t \27791 ?-\334\016\277|\252\002?_\007\343>\037\276\017?I\367\006\277\020\021%\277\032\\\037\277Z\253\020?\314!\032?b\035\000?\331\024\002\277\352\240\036\277\213M\n?Z\314\355>\004\"^>\0352\030\277\247\031\030\277\277\360\022\277`\003\326\276\304` ?-F\017?\027\325\020\277\005\\\273>\013\250\001?U\365\374>D\312\340\276\367\002\n?\002\026\r?\203\203\275\276\024\305q\276a \374\276\377\253\305>\245\253\312>F{\371>\205\260\247>\217\354\"\277*\214\253>\260\260\n?\022\235\355>\327\346\360>\200\301\363\276\360T\215\276\364\302\316>\252\304&?\224n\262>\003#\250\276\027\360\005\277\335\204\370>\225\370(@\327\335\000\2777j\005?\255\201\007?x\366\267\276,M\007?\337\253\250\276U\243\312>\n\270\332>\3751\310>s\225\022?\260H*\276:\035\261>\002\207\251>\374\242\316\276\341J\252?\244\030\343>\360\343/?\322\207\005?|i\273>\005\244\346>4C\237>\352+\310>\247\r\023?l\346B=5.\361> \021\324>\321\332\005\277\321\357\251>i\267\335\276\323\027\027?Jh\242>\001@p\276H\274\321>\235\214!?\007;\335>\220\372\303>\003>\314>\303\276\017\277\211g\360\276\010\223\000?5\314S=1@\006\277\212\313_=\030\364(?\247g\361>$\367\000?\206\300\366>\006\3231\277\250\237\343>Y;\322>`\344\241>\274a\270>\200l\010?>(\020\277\2272\001?\026\0041?0,\335>\373\307\032?\327U\253>):\333>^A\321>9D\334>\374\037\376\276(6\022?\202\347\001?\n\"\231>C\250C?\006\007\350>,}\017\275;\305\341>\214\301\322\276\304\277\025?\217\374\025?\346-\325>\225\364\004?\322I\302\276\333\021\361>[\356\007?\367\251\376>g7\376>?=\270>\037\026-\276\273\236\343\276\023p\017\277\207\344\'\277\035\026\327>!\214\240>`P\342>gi\361\276~\345\257\276\353\206\321>\223\220\021?\3257\276>\034\370\321>:\214\036\276-\275\314\276\267\252\024\277\263b\247\276z\375\236\276\213B\316>#\302\014\277\255\2140\276Z\347\305>\354(\t\2779\250\017\277\354h\310>{\010\316\276n\3773=\372\315\t\277J\213\303\276\313{.\276\244V\007\277\356(\334>\265@\366>\'=\237\276x3\n\277\202_\312\276\327L\357>sD\242>!\001\341\276\037^\337>]\022\222\275\314\203\257>\215C\342>S\327\344>\322\016\360\276B<\332>E\237\347>\336\013\255\276A\343\364>\311\177\277>}\325\374>\216b\322>\315\267\335>\005\276\003\277\001m\323\276\255\233\316>>\357\036\277\365\350\225>\332\315\366>S>\212\2761z\223>\327\2300?s; \277`\244\373\276p21?\312\346\232>4=\272>%*\004\277\212\237\342>L.\255\276\255T\007?:g\337>\376\034\332>IK\003?\360\301\253\276\310^\271>\311\223\337>^\331\377\276\177\336\311>U7\310\276\256,\026?D\254\351>\377\306\304>\250C\330>Y\334\256>\204\227\013?\305j\020?\021G\330>\026\224\337\276\276\337\345>>[\377>\214H\352>\224\371\346>\262\3636\277\030\255\006?\"\352\352>\233#\301>I\265\347\276V%\277\276\221O9?\257x\017?E\032\352>\357]\227\276q\242\014?\216\n\344>;\005\372>\326\036\256>\377\033\261>2\212\020?L\260\365>B\340\032\277\235\261\006\277)\350\t?\244\216\003\277\313\221\350>\342\363\303>\316\310\256\276\253\217\267>\010r)?\005\240\275>\316B\004?<\335>\277\331\2642?)\360\234>\004)\017\277\307R&\277\305\355\375\2760\230\266>\212\345\271>|\365\002?\346\221\276>\303\353\331>\242\177\347>0\276\301>\270\240\267>\370\264\341>\035\007\320>\014\220+\277Lk\024\277\2439L?\334}\016\277\361\376\021\277\217}\353\276\240u\"\277ln\240>\265\251<\277\226V\340>\037\376\354>\352\216\302?\334\266\314>T~\362>jg\365>Z\224\024?\n\320\031\276\245\303\276>\016\252Y=\251&\264\276\315d\010\277\333\210\"\277b\261.\276k\273\307>;\363\345>\r\000\356\276\"v\r?r\003\265\276\2332\022\276\010FP\276J\272\255>h$\207>\240\177\000?\376\016\220>\362\243\360>-\352\036\277i\221\316>\216\327%\276\210\317\010\2779\321\370\276\3713\256\276*{\033\277\252\371\326>\353\224\016?\272)\306>6\t\027\277\227\272\306>\251\271\320>\244\353\312>\031P\003?\305\301\241>\023\254\221>\374\357\303>\222\320\227>\3151\271>\345\301\005?\262q\202?\214h\326\276+\177\000?\237U\016?Yc[\276\310\224\002?x\357\250>\215\371\242>\002^\345>\203\001\335>\347\343\370>cX\020\277\374\275\004?\203\273\000\277\216\316\363>\264<\210>\242\016\330>\254\336\231\274\227*\t\277\251?\330\276\220\340\324>^\331\022?%\224\252>we\340\276;i\036\277\327?\224>B\031\214>Th\276\277K\3136\276\215\307\340\276\230u\006\277\351\246\236\275\206} ?W\025\002?\361\311\274\276\352\322\354>!J\022?\002\370\022?\036|E\277\0012\r?\244\304\023?\230\356\000\277\000\261\233?\023\237\025\277.;\022?7\006\r?X#\025?\017\277\352>^s\006\277\302R\335>.\353%?\312S\t?\210\037\014?\277\334\021\277I\232\010\277\360\373\001?\261!\013?\t\310\033?j\006\335\276~\361\377\276\261\036\010?s\226\304<\354\362\003\277\243\013\031?\326\257\030?\351\330\014\277\226\367(?3\014\033\277M\333\t?A\310\004?\320u\336>\003\267\021?\226\310\257\276\347 \001?\022#\353>\014o\376\276\300\037k>3s\n?\0329\025?\242\375\010?\254\200\371>]P\002?Y\326\377>Ug\000?#\014\010?\252(\326<o\372\004?g\237\022?\222\032\355\276\254\227\370>1\353\375\276\251\353\"?D\300\323>\277V\006\277\333\372\032?\244;\024?\'\000\364>\342\352\360>\350\336\004?x\017\024\277\315\365\014\277\330\006\014?\035\356\270\272\200l\r\277PV\010?\207\254\016?\0237\020?d\325\010?\346$\r?\t\245>\277\013H\027?\233\010\024?\343\354\000?\227\336\324>a\274\023?\315\222\006\277\237\213\n?T\352\376>T&\004?>\211\003??\036\001?\333J\003?\202\215\367>\tf\004?\005\027\016\277n60?\026\253\021?\260T\376>\nY,?\227\t\021?M`C>\263W\024?\225\201\344\276\344n\030?`\023\020?n{\006?\2078\031?\020\250\372\276\223\034\025?\241F\026?\2721\010?Y\005\017?^\210\023?h@\213\276$\335\013\277&G\203\276\303\327\016\277f\254\n?.\320\322>\t\016\n?\360\303\023\277\241\361\335\276\353\004\002?\203\217\034?\030\306\001?\337\356\000?H:\377>\024\"\004\277\213\221\007\277\223l\004\277T\177\354\276\230k\035?\252\001\021\277\372\206\340\276\322\327\005?\r\251\363\276\t \373\276\230\313\007?w\361\001\277\305F\342\273\005\215\010\277\007C\017\277\346R\350\276%S\010\277\335\3214?5\260\017?\\\267\363\276\244\331\010\277\007\340\006\277\237&\010?\033\201\024?>\t\002\277\025:\001?\360\370\346\276\027,\367>\006\302\004?p\017\005?\020\325\366\276X<\026?\014\321\023?\t\250\020\277\\\337\030?\005\023\345>|\003\004?^\033\016?t\336\026?sQ\362\276\233\235\375\276\013\320\014?>,\037\277k\320\331>\007\336\021?t\261\007\277\t\312\350>\236\272\035?\326\355\022\277\351\016\t\277!V\022?\026z\007?Z\344\001?\024\370\010\277\241Z\362>\360\260\004\277\027\275\r?\372P\n?\320p\016?03\021?|\311\013\277sx\005?\277\330\033?\321\216\032\277\227\036\t?\354\365\373\276\341^\026?\273\307\377>\237\016\010?\022\322\371>\216\314\030?8\302-?\372),?\345z\000?l\374\364\276\344\313\016?g\353\010?\314\344\016?\304\246\014?\275\306\030\277\230\363\013?\026\357\022?\307~\002?\344|\026\277\223\251\357\276N\2271?\301\372%?t+\366>\252\324\367\276\255\322\032?\301\000\027?\334%\017?o\244\373>\347\203\365>\211p\001?D !?\217\216\372\276H\325\005\277\3405\t?a\n\007\277\n$\006?\213\222\003?\303\365\t\277\354\214\030?\371\340$?p\032\001?c_\027?\347a\025\277\033\276#?\372^\037?\205\330\001\277\333\311\007\277\022\221\022\277\247X\327>\364\020\001?\231 \t?G\305\022?\324\210\t?.\001\013?HJ\031?H\324\334>R\266\020?\326\350\000?\242g\034\277\331\004\024\277G\240u\275`B#\277\350\013\022\277\264\221\004\277\365\t\022\277N\004\005?@]\014\2779\003\335\275\274\234\010?-U&\276NT\362>\214\241\016?\0011\007?\211\303\037?\236A\315\276\343?\023?\212)\306\276\032\002\377\276\016\006\016\277\226\376\373\276\336T\351\276#+\021?J\200\003?\'j\t\277\374\377\023?<\327\365\276fu\272>\034\224\010\277(\276\003?\3125\306>\246>\r?(\300\031?#\361\371>\373\370\014\277\352e\006?\272\243\001\277\275\214\024\277W\026\003\277\307\\\013\277\002*\004\277 \377#?\307}\032?\324\241\366>\373\025\031\277\237\215\013?L\215\010?N\023\352>4f\016?Vt\004?\272\034\026?\233\016\020?\234\336\327>\177\320\366><\354\032?\246D\364\276e|\354\276\235\207\376>\005S\024?V\221\362\276%\022\016?7\235\021?U\360\361>*\364\370>\323\233\006?d*\016?\230\017\024\277\307m\026?\276}\013\277!X\006?\032R\340>\336c\007?@\323\005\277\216\336\025\277e\271\026\277\334\001\014?\246\300\020?\024\344\375>\203\020\002\277\234T\027\277;\006\t?\215\306\353>\250\335\222>\'\326\017\277\264\270\n\277U\004\r\277j\367\313\276\210O\032?Km\t?\363-\t\277e\034\374>\017\262\r?:\035\024?\203^\213?\212\013\024?\302\353\025?f\221\021\277\263Y\271\277\213\373\026\2777\251%?\352\262 ?\256\276\r?Q\371\004?\317!\000\277\304\344\001?\246\200\002?9|\033?\364I\035?\353/\032\277\3539\033\277I\232\021?56\037?\360\213\021?\224\026\037?\353j\275\276pv\374>\334\247\000=\330S\372\276\324: ?0\204\014?W\330+\277\335\265:?\320\340\032\277\212x\'?~\373\n?\370\223\304>Z\226\010?wu\020\277Y.\'?\244\321\023?d\374\022\2771\234w\300\202F\037?x=\014?\0145\357>\037Y\270?J\223\021?N\370\343>j\325\024?\365\204\360><%\026\273\023\261\013?L]#?\207C\345\276\265\341,?\330\301\023\277\257\001\000?\334\266\343>\260\262\'\277\321`\035?>\276\376>\265\307\006?/\313\006?(\242\027?\203&\n\277X\256\n\2775\352\014?\274\177\230;\036\004\355\276i6&?-\256\376>\311\377\r?\275\247\034?!\201\026?J\022\017\277x\036\r?M\240\017?\234\021\014?\3004\324>\202\244\022?\374\345\310\276\332U\021?\214@\032>)\343\374>\317\023\340>\270\376\024?\253\205\006?\213\003\014?\367p\002?\032\276\004\277\335\343\020??W\016?\256\025\023?\317\270\357>I\300\317>\317SQ\277\217\302\035?\"\004\365\276\033\202\022?^\231\005?w\354\024?\211\325\002?\004\023\020\277\'b;?t8\022?\017\257\022?\022v\013?\264\307\035?\244W\217?O\t\032\277\354\345\305\277Dd\331\276\250C\027?!\242\364>\222N\022?\343&\010\277j7\013\277\256\234\006?\022O\010?)\177\n?\003\033\t?3\322k?\021O\022\277K\365\026\277\017T\032\277\342\344\021\277\001\227&?\022\010\014\277OR&\277B\360\t?$\270\340\276\2235\247\277-\255\034?\217\371\027\277\203h\360\271\036\016\361\2762K\035\277\\\236\024\277+\313\020\277\264\003\034?\371\"\021?\362\241\'\277\024\252\302\276\322<\013\277M\277\004?\r*\022?2\254\000\277\026G\365>\266\225\025\277p\235\366>z\324\021?\222N\020?w\226\014\277D\003\022?\2542\030?\213\363$\277tJ%?\266\251\345>\322?\010?O\304\t?\374:\033?\357\344\364\276\211l\013\277\265w\n?\211\322\033\277\3062\355>[\214)?K\335\r\277}\231y?_\331\n?\3040\016\277\277r\020\277\346\005\004?\326g\030?\356\302\005?\325\315\r\277\227\277\t?\251\036\022\277\314\230\r?I0\017?\177+\032?\370\277\003?\374\221\035\277\251\346!?\312\' ?\003o:\277\000S\000?\376e\343\276\376\345\n?x\257\004?\341\277\t?,\333\006?\200Q)?\321\025G?wo\031?4\005\020?\300\204\334\276d\002\017?\277\023\027?eQ\021?\375\205\025?\251\313\376\276\211\010\007?\267\315*?Y\035\000?\310\200$\277\267\272\024\277t\341\213?\363\372\025?\320\323\004?\240\003\013\277\\\210\n?I\252\031?N1\n?m\261\014?\362\274\026?2\t\361>\32562?w\023q?\000\342\000\277\371!\013?\010\343\016\277\222^\t?\230\302\016?\347\253\034\277\2461\036?0\345\010?;\376\001?!H\t?\370\177\225\276\207\356\377>\302\007\033?k\237\n\277\270\237\304\276\362\203#\277R\327\351>\000=\025?\325\341\t?\177\252\013?A\237\026?<\365\014?\265\317\034?\350I\n?}d\036?C\313\024?\tn\002\277#\365\002\277/\262??t\034\004\277$}\035\277\273G\360\276\232\364\352\276ji\026?\334%\340\276\375\365\224>\305\375\027?\366\345g>8=\025?\235\226\033?@U\024?0{!?\377\254\034\277\305\223\032?k(.\277p\324\023\277\207\217\003\277\317\224\242?\370\236\025\277\236{\033?\354I\021?\332\317\024\277\363\230\375>\315\310\n\277@\006\361?\210\225\036\277\251\376\020?\266\342\325>\270\266\030?\017\351\027?\201;\003?50\362\276\214\005\"?\346l\032\277]@\r\277\347\270\n\277\344&#\277>g\371\276\317D\014?\021\350\"?\347$\022?qh\006\277\337\335\023?\364\356\023?\274\264\001?\365\347\021?(`\025?\305\346+?\260\335\017?\206\005\030?9-\022?D\243\035?\360\204\270\276Q\023\317\276\017\313\375>\263+\003?m\031,\277\213\275\033?S\240\"?\214\242\r?)V\357>\327\263\033?\306\313\005?y\311\025\277\231\347!?S \016\277\321\306\021?:`\013?\364\010\024?\260/-\277]U\031\277T\230\007\277\265\021\024?+/\013?j\260\031?\333\270\022\277y,\013\277/\251\016?\030H\r?\276>\305?s33\277\007+\030\277\315\357\022\277cP)\277\221\313\r?3q\024?\236\330\035\277[\332\347>-W\n?l7\014?\3364\314\276!\207\003?9@\014?ca\377\276)\241J\276\3409\004\277\323\254\006?\273\314\r?\253\222\023?a\346\314>\214Y\021\277\354\350\333>\003O\370>;\027\013?\177\307\004?\311\220\021\277\316\201\375\276\227A\373>@\214#?o<\352>\222|\312\276V8\025\277\276\377\366>\267\252`>\300\'\005\277gt\005?xM\002?(\372\002\277\236\246#?\037p\002\277\215|\006?\322y\342>\210\314\275>\\\240\377>;v\311\276\342\207\327>\302\274\377>\376F\326\276\'\277(\276\013\322\014?\271\027\016?K\334\374>\225\006\227?\034\301\372>\032\006\253>\346\036\361>%\230\004?CU\003\274\266i\367>\325\356\004?LF\320\276 \357\370>k\323\377\276\220\227\033?\013_\300>\001\214\344\276\255\303\306>{H\021?#\362\357>\212Z\325>K\033\n?P\334\n\277\312\360\002\277\214\321\367>\377\035\023\274\326\375\t\277I\270!?\331\375\353>\177\337\351>\340Z\006?\027j\375>\274:!\277\350\207\337>\036\241\341>Pw\270>\222f\277>-^\006?\201f\314\276\365\206\006?\366\246\"?\027\342\336>d2A?\035n\353>y\332\333>\205c\001?\345\025\344>]g\006\277i\230\037?\376\322\355>\021P\313>Rx\010?\\\216\022?\2654N\277\000\227\366>\036\217\325\276^\0342?\370S\021?\010\221\013?\005\006\017?;\022\355\276R\001)?\343\364\026?@\272\020?\336\375\004?\323\334\367>&\'v?\271x\010\277)2\032\300\233\377\r\277\006^\376>UF\315>\023P\000?Q-\004\277\230L\355\276\215\307\344>\374\302\007?\000\210\356>s.\313>TC\021?\355\177\000\277\235\373\r\277Wy\376\276\3600\324\276\276U\327>\316\231\021\277\031\317\351\276?\275\356>\253\323\007\2770\201#\277=\241\010?Q\314\n\277\312in\273\206\"\020\277K\214\002\277:\205\345\276 /\r\277\235\246\301>\036\355\377>L-\364\276\236d\"\277\204\250\014\277f\030\003?\035-\311>\247\336\362\2763\262\344>\244\033\336\276\030\221\325>O\300\361>K\242\004?\221\245\000\277\265H\"?\224x\004?\306\010\001\277N#\n?\213\215\306>\3733\035?\033F\370>m\343\017?B\250\006\277o@\353\276\275\215\371>8\026\034\277H\231\254>z\346\025?;\025\353\276j\216+?\240S\033?\257\311\016\277-S\000\277\000; ?\272\032\366>P\326\340>\343\007\017\277\375q\365>\3050\310\2761\236\006?(N\341>\314\224\346>\302\360\036?$\345\327\276/-\364>\233.\004?\001\305\021\277\306#\001?\023\366\374\276\315G\006?\001a\364>\211\344\376>\367k\347>\032\315\016?\304&5?y\351\022?.\274\004?\\\356\334\276R\210\344>r\177\003?;\332\r?K\367\007?T\345\016\277bG\005?\324\t\016?\320\320\335>\036\351\013\277\244E\022\277Om\211?\363\007\013?\310&\351>B\233\342\276\240(\376>\322\303\013?\237I\006?\001\243\334>0x\357>\274.\002?\037{\016?\034\027\272?b\201\370\276\373\005\006?\030\233\014\277\234\345\000?&0\370>\301c\005\277Bx\324>\203\177\033?{\'\376>\252&\005?$\3377\277\255\326#?E\006\311>\022\034\371\276^\375\r\277\356(\"\277\014\251\312>\211\226\353>\302\213\376>\256\372\346>\345\257\350>\212>\361>l\330\343>\367=\354>\360@\014?\234_\t?)i\020\277\223\003\"\277\'\t:?)\304\020\277\0354\024\277\270L\301\276{\n\006\277U\301\345>\240\031\023\277$!\357>\322\205\373>0\r\200\276\002L\374>\344\376\006?\316t\010?\357\246\r?\217\342\331\276\230D\346>\240\235\244\276\366\331\345\276\357\246\001\277\213Z\210?\231k\314\276\311\356\010?9%\000?E\332\013\277k\200\373>xX\354\276N`\212?\271\350\t\277Xf\365>\212\371\231>\336>\n?\254\t\262>\276\r\360>\261\251\021\277\375\355\370>J=\377\2762\377\r\277C\353\001\277\257\361\361\276\243 \014\277-\350\315>s\322\033?\342\213\000?A\034\007\277\nr\004?\354\230\376>V#\363>\221)\005?#\333\356>V0\314>\306:\336>wp\355>k\366\362>\227\355/?\367B\205?$\373\023\277ma\364>}\214\373>\306U\002\277-N\024?mP\367> \225\367>\020\325\372>\357\207\000?\027\357\006?\375\315\'\277\317N\037?\201\340\022\277\022\225\006?;;\310>\205\223\345> \235\362\276\2726\021\277\024V\020\277\205\026\367>\200h\002?*-\365>\307\304\n\277Ab\014\277n\207\247>\022]\315>\254\241\005\277z\260\021\277\326\323\020\277\014(\006\277\326\314\336\276V*\037? \327\021?\364\014\006\277\364\374\362>\216\375\002?\t\236\n?\226k\277\277v;\n?\245\335\016?4O\007\277\307\224{?\215\271\017\277A8\027?+\350\030?\237\304\013?6[\002?\274\260\367\276\002\016\366>\253\016\353>\362\315\024?\362_\021?/\306\016\277\261\340\021\277\207\242\013?\215\305\020?g\262\014?To\024\277\342\365\266\276\034^\356>\377\367\210=\323,\341\276F\023\024?Hz\377>\275\240\033\277\307{-?\202\000\023\277L\363 ?\315\312\007?\221!\276> 9\005?\277\303\010\277\270\n\036?\205\347\013?7-\t\277!\346\213>\303\314\022?\017\205\004?\240\225\332>\"\306\265?\312\233\006?uT\324>\177\324\t?\356\260\344>D\005J=G\275\374>\231u\032?\330\327\331\276t\330\037?v\316\372\276c\300\371>\376?\332>\255\266 \277\246\304\023?u\364\363>9\223\373>\261\262\371>w9\024?\205\251\000\277\314\366\006\277h\222\004?+\237\003\272~K\341\276\357\274!?\032M\360>\277O\002?\325\n\016?\0337\007?\323\013\366\276\206\003\376>u\241\005?D\366\002?\202*\310>\0309\006?Vx\305\276\240\004\005?\214\036h>p\323\346>\022\031\333>\354\020\017?Z.\003?\2255\t?\352\277\352>q\256\365\276\216\277\007?(]\005?\325\001\014?ps\336>\230\333\330>\263[D\277\300\275\020?\317R\336\2761c\005?\326\337\371>ca\007?t\"\363>\200\351\005\277/e1? \366\006?:`\010?\335\300\000?5\005\033?\\\305\211?\331\315\021\277U\233\341\277x.\334\276\213|\010?\034F\337>\346\351\007?K\032\363\276\310\234\005\277\242f\356>\351\227\370>4Y\002?o\202\001?%\203`?\233\322\005\277H`\005\277\350/\024\277\363]\003\277\035\320\030?\346\216\007\277\3130 \277l\201\003?\234\355\330\276\026\237\227\277\343y\030?-A\014\277`\300%\274\277\326\353\276\313\376\024\277\021K\r\277\372\205\005\277Z\334\034?\247\333\010?\240\035\035\277,;\276\276\371D\370\276\353%\376>Z\204\017?\022\376\350\276|\003\345>\245\010\020\277\r\033\350>?u\013?\216\245\005?8O\366\276\023f\007?\214%\014?\243\246\025\277\216/\027?\224:\342>\246\311\010?\250\217\001?t\244\020?\231&\337\276\214,\001\277\201\340\002?\254d\022\277\\\224\316>B\337\035?\024\203\000\277q\017i?P\030\006?w\337\000\277\307\001\004\277\257\231\373>\025\305\026?\344\304\373>\250T\007\277\223\022\000?>\006\007\277k\374\010?9\017\t?I\342\017?\351\263\004?{\352\021\277\2709\031?\3735\022?\240\';\277=\260\352>\353M\323\276\334m\001?\332^\365>\264\266\006?\004\352\371>\342\323&?@\022<?Ji\020?.\365\010?(\241\323\276(\373\004?^\316\013?\262\366\020?\254]\017?;8\345\276\371\362\000?\301\005 ?R\016\377>8<\032\277C\311\007\277\202\231|?\024\030\014?~[\001?[\023\005\277\306\306\003?\304\362\021?\212\365\376>^x\001?\376\241\016?L\334\330>\rj$?\223!j?\245\021\356\276P\t\001?\271m\010\277\216\201\001?\340\r\001?\271\034\013\277\033F\027?@>\364>r\222\000?D\340\007?5/\234\276\247\344\353>n;\013?C\256\005\277\277\371\272\276Bq\034\277LS\345>t\326\t?q\252\371>\243\'\003?\326\257\n?\270\320\002?\'`\r?3\201\373>\366\264\021?\320\263\013?\250\236\363\276\034\354\351\276\341]b?\370G\010\277b\326\024\277\'\273\366\276\270\305\346\276d\027\016?\322V\330\276\013I\242>KR\013?U\345n\300a\010\n?\272\313\016?>\207\010?/N\032?\354\266\024\277\260U\025?\024\370\"\277\313\347\010\277w\302\372\276\372(\232?, \n\277\336\233\020?\226A\002?\311a\024\2778\200\342>\025\341\000\277\355\354\002@A<\030\277?n\023?9!\304>!\365\r?\267\254\031?YT\362>/K\334\2768\346\021?\353\225\020\277\273c\007\2771\336\375\276\307;\030\277\026W\341\276S\234\375>\214\362\036?\342\300\r?c7\376\276\003}\016?\266j\010?&\026\365>\242\321\013?\000\t\024?\032\245(?):\006?\256\372\r?l<\017?\025U\032?\013\000\372\276\260\302\304\276\3333\357>\266\362\354>\032t(\277\202\307\r?\371\306\025?6\232\001?\323u\352>\305`\016?O\010\006?\r\331\024\277\025m\036?}I\002\277\216a\017?\367K\007?\245\263\r?\215C\037\277\'\222\n\277tC\376\276\334\372\r?\331\221\000?\022\321\023?\001\177\n\277\262\326\002\2775\022\010?\320\234\t?\277I\305?\304\311 \277E\206\t\277\311Z\016\277\307\315\033\277\256\366\n?6\214\014?\000v\025\277"
      }
    }
  }
}
node {
  name: "MobilenetV2/expanded_conv_15/depthwise/BatchNorm/moving_variance"
  op: "Const"
  attr {
    key: "dtype"
    value {
      type: DT_FLOAT
    }
  }
  attr {
    key: "value"
    value {
      tensor {
        dtype: DT_FLOAT
        tensor_shape {
          dim {
            size: 336
          }
        }
        tensor_content: "\314t$@\237rK?\371w\355?6\344\224?\327\202\306@\224J\375?\243~\373@\036d9@y\010\n@\252Kq@\365\352Z@\364\345\213@\215\\E@\271:s@\247\375!@e\340\346?\000\327\tA\364\312_@\326\026\004A\275U\203A|\3377@l\240\245@\353\177\261@V\343\345>\337\033#A\350f#?\025\346\204@T\257\241@\204M\272@\336\313#@\326\322\307@c6\373@\330\373\254?\355\202\244@\236R9@\262K\233@~\352\tA\235\201\r@\256\177\027@\254\027x@{\260\276?\"G@@\225\356\007A\nk\263@\220K\356@\315\213\254?\037\272&?\241m{@!\300\241@\220\2222@\r\256F@\001\353\023A\367\301\'@n\226K@\216\021\034@;\274\020?\316\254U@\305\177\037@|\333\005>4\003\243?6b.@\266\362\221?Q\016\350@\235z\335?\264\347>@\2036\374@o\202\032@\213B4@\343W\227?\031\357\372?*e\203@\377\325\023@{\365\315?\000\201\016@\376\">@\214Q\360@E\323\216@\254=\001@\r\177\307?y)\211>\320\231\005B\230\030>@8\024\001@B8\014AIB-@a\354\031@\3175\276@s\244\260?8\000\246@]\256e?/\303\227@I#\330?\213~\226@r\000\334@jC\017@&\022\202@\214\037\274@\312\330\272@3\037\244@kb\233@k\354\266@\335WN@LG\310>33\266>\017\227q?c\275\257@\240\205R@S\202\303A>t\336?\371\311\247@a\301.@\316\373\002>(\020ZA\236\373\341?\336\302\231?\340\003\304@:\346\001@\202\212\301@\216\0274A\202\253\324@M\'\217@\217\356\tA\337.\230@\220h/?\036od@\002\357\327@\000\301x?l!\204=>f\n@4T\372?\373V\247?\350R0@\363D\220@/5\017@\0058\330?\367\237\231@\345^\n@\242\356\001A\005\3573A\010\254\355@\2551>@J\241\334@m\304;@\3334\323?=T\203@c\307\207@K_\346@\031.\215@\034[\211@,\306[@\t\037\377@\355\320G@B\272\256@\312Ru@\234\367^@\243\355\234A\367\257\320@p\243\241@\266,@@\244\ng@\264\352\261@A6\325?\241\232\251@W\246\360?\331\266N@\017G\t@\226j\222@XsGA%Q!@#<\311?\375\027\020@\336\214\315@-\206\003A\270\226-@4\310-@\221\232\200@\205\261\214@g]\260@\263\323\226@d\233-@\357\275\001A\320m=A+\2156@\232\343(@\2635TA\2655`@\347k\017@\256o\326?\367(OA\033U\002A\321\355\204@\227\210\212@\372S0@/\302\206@0+\017?t\306\241@\355\372\247@\217\260\342?sD\227@E\245\22768\275\005@\320@Y@2\265\204@\270_\371>:\315\004AS(\344?\013i8@u\177l@8\262\014A\331\016\236?\227(\2578\252(:@\357V7@u\217\350Ab\0243A\3353\317@\033%=?O\357\307@a\235C@\274b\006@\235\201\354@\005E\201?\331\032\335?\265\263\306@\177\240\337@\227%\025@w\273\373?\226\035+A\350\275\000@i7\020@|;\376@;\'%@\357\352\226@\0331\003@\232\213/?\371\2015@F\357\014A\356\032u@\276\tL@\342\020\235@L\211]@\332\033\325?\227\245~?\001\031+?\301\345}?\3442\256@\334\222\232?9\207\226@\323\371\014A\351h0@r\366\327@\360\325\254?\"\363h@a\324\333@\321\273\250@\351!Y@\261l\321?\330\325&@\017\265\002A!\267\337@}\'\275?\025Q\243@]\277xA\022\'U@\271\204\021@f=\220@~\347]@+\312\223@\357\r AR]C@o>\261@l\374\261>B\221{@1O\230@\024-<@\371\357\264?W\257N@\227^\216@<|\234?\342*\201@IE\261@\377\305\016A.\213\021@\201\207\364?\320\363\233@<p)@|\030\223@SqWA5\314\006@\323\257d@\036%RA\335\313\022A=\223\316?ol\202@VX{A\221\033+@*\276\310@U\261\252@\006\305\252@\361b/@\350\201<@\032\217T@\210Ng@\330\010\024A\322\356\023@o~\256@\211\004\230@\217xt@\275(\357?&\034q:\313\306\202@/\230`@\007\177m@2\221\26073Qp@@Z\373?4\334\262@\313\000[@\'\215\014@\254E\324?tg\031@\020_%@\344\261,@\021\021\017@}\177\204@\337\332\234@\223\237\377?\304\237\260@\223!X@\277\326]@\"i&@\223?.@\022\310\236@N\310\276?\022g*>-\235\037@"
      }
    }
  }
}
node {
  name: "MobilenetV2/expanded_conv_15/depthwise/BatchNorm/moving_mean"
  op: "Const"
  attr {
    key: "dtype"
    value {
      type: DT_FLOAT
    }
  }
  attr {
    key: "value"
    value {
      tensor {
        dtype: DT_FLOAT
        tensor_shape {
          dim {
            size: 336
          }
        }
        tensor_content: "\307e\301>\013d\323>!\267\203?\352\2571?j\324\025\301\335\251\226?\250<\222\277=\237\340?\364\374\336\275\341\346M\276.08>\3151!?\342>\342>|\246r@0\312\272?\230\343I\276\221\214=@\2427\232\276\336\302\246\277z~\001\301]\021\327\274\230\260\260=\221\003\267?\311\306\312>\017\370!\301\036C@=O\372j@\301\250E@\273\347\254\276\267_\316?\334\320u?\347\343\230@\312\351\222>\357Z\327?\3521\321?j\023\213\300\005r.?D\023_?\006\356y@\270\212p?\270\003\030\2772\021\354\300\2709\206?*\354\001@d\203H\300\325\242f>\250%\201>Ly\013@}K3?\354\243G?\000\032\363\300\266\305\321\300\263Mg\273\212X\261>V/\014\276g\334\342>a\313\347?\324\326\261>\367 \226=\322\365X?\322O\021\277m\034Q?r\374@@\235\212\220\300+\225\'?\360\356\034\276\301\305>?:\003\216@j-\370>a\365\373<\225\016*@D\216\243\277\236\226\271>\224\326e?\320\360_\277W\310\220@v\344L?n\331/@\027\373\202\276#\320\204>\306&y?\023s!@\351\002\233\277\363&\010\301Ik\217\276\2354\227\276[\375\217@)\361\033>\3646\243\276\251\361\022?\341o\336\276\234\331\032?\t)\007\277\277\004\207?\201\353\275\276\035#\003@\033}\001@Ru\242>n\3757\276\231\363f@f/X\276\243\204\035?\240$g>\300\203t=\3273~>\260\335-\300E\010\316\300P\021\245\301\027\2631?r\177\353\2777\373\210\300q\344Z=q@\036\301\366!\n?\247rp>H\257\312?u\\\301\276\367\t\253@\\\342*\300~b\362?\307\\\244=u\'\256=\007\245\024?Bo\307=}\267P\276D\276\005\277/\272\204\276\304X\272@]\2162?\361t\337\300g\350\220\276\366z\023>\335\n\231>\3171\236\277G\rq?\016\366\324=v{O@`\021\271>\323o\246\300K\301M@\356\351\372\300\330\247\361\275r\177O?\364K\235?r\013\271\277\377\335\316>\257j~?\\T\203?r\344\255?$f\214@\270\034\273=.r\376?-\263\025?\231V\013@\267$\234?\361a\202\277J\177\303=\225\344\212@eX\020@%\357\274?\246\373\222\277\307\335H?K2\262\276\302d[?<\320\007@_*u?\353\214\003\300 \007=\300G*v\2762_Y\276>\t\264?P\244z\276\356\226\026@\021\265\003@\250\243\225>.<\032?\231\345\017?\354y\264@\367I\021\2766\304\325>E\252-\301\341z^\301\212U9?\213,\'>\260\367\271@\031\251\257\275[\353\260?\036II?C\2453?\006\302^@\235\327s?u\313\334\300n\240f?\\\017\225\300\236\027\271=\203\275*@\200L\373\300\375o\322>7\0368@YN\2668\374\250\236?\326\372\005>L\262\270?\245\321\227>-\272\317>F\327{?\223Zp\275\322<\346?-^\204?\320\025\362>l\246\253:0\301z>W\273\016\276!\\$\301Hl#?\317\277b\300\204bn:\371\364\023\300\364_\244\274y.\022?\003\223\307\300\204z\004\277V\265h?i@\215@\033\272H\277|X\237\300\301\271v?\216\335\030\301\222\214\316\300\327WD\275\237\033N@\210\335H>v>$@*\267W\276oL\307>`\336<@l\337\004\300\334[K?\241\237\260?b\262S\276\tl\363\273r3H>\037\213\360\275\032\022\021?\2460B>\353\241+@\331\323O?\347_\266\277\230\326\021\301\323\3403\276m\330\322\300\235W\204>\3733\321?L\256E\300\000\376\231?\351EK=\270\231\217?\356\220\221?Y\241\033@>\2731@\324\024\302>3\022C@Ev5=\226\251\233\274\260B|>\377\223[?\311\235+\274\024\221\215\276:\321\335\276Cb\245\300&\244\235;\253O\255\273f\035H\275\300\304:\276\r\021u?\274I\201\277I\311/\277R\217\027\277\323tp>\311\276\026?|\231\303\300\360\002\272=\361\\g?\301Z\343>xk:\275\213\024\026?\302\332=@\016O\240?\007\253r?b\206\355?\241\3703@f*\222?b\377\004?\357\253%?\273\206\037\277\247\3608\276\253\r\036?\005v\247>\010\257\353\277\353\311\204?n\255{>)\022\306@e\313\005\276\0134\201@\301>R>\r\374\275\276\317\311\273\275\022\312;?\345>\312?\214.\301:}\250\265\2767\001\270\3005\243\325>\204\216\3349\003\202\037@\t\033\217?\226g\t@q>\007@\223\325\334>\014*4\277\254S\240?\215D\306?|\274\213>\275\036\334;V=A@\270K\377\275\246\007e\277\272\036\247\300\267\335\207?\224}\310@\257\026/@\313\320\370?/\304\351>\r6\001\300\007q<\276\241\221\330>"
      }
    }
  }
}
node {
  name: "MobilenetV2/expanded_conv_15/depthwise/BatchNorm/beta"
  op: "Const"
  attr {
    key: "dtype"
    value {
      type: DT_FLOAT
    }
  }
  attr {
    key: "value"
    value {
      tensor {
        dtype: DT_FLOAT
        tensor_shape {
          dim {
            size: 336
          }
        }
        tensor_content: "y\302)>\357.\014?<\332\020\277\276\233f\276O9u\277\302\374\222\277m\036`@\"X\250\277\205#\027@\001\024\315?\215\204;\276\226\224\221=\020\013R?\277\206\"\300\3670a\276S\037\326\276\324>6\300\031N\027@\027]\252\277\250\025\363>\361\362\r\277\253\271\030@\237\247\203\277d!\025\300j\345A\277\032__@\276C]\300\002U\031\300Uy1@\250\304\370\277Q\2758@\343\005\026\300\312|\264>iy\035@\370\004\027\300\351`\003\277\200A9\277\023\013b\277\001\300W\300y\\\002\277\211\261\226\276\360\362\355\276\245v<@\223M\240\277+\264\002\2765\246\325?2\353r=\276\353\013\277\033P\340?\374a\327\277rpm\277\253\346I\277/\004:@Q\3616@z@\235\275\255\001\202\2772\376\210\276[\347\270<K\t\027?\225\217C\277\256V\222\277\272\302\342\277S\300\265\277\262K\035\277\375w\007?\347\240\342\275J\212\001?\001\324\200\274\257L\033\274\303X+\277}Y(\300K\252\335?\322\322G\300xb\325\277\035\254<@\301\'\007=\300\350\312\277\335O\367\277\231\224J\276\003*\001\300\343Fo?k>%\300\304\010\010@\335\263\005\300G\223\222\276\003\235\004\277^\t\340\300\332\027v<\244\177<\276\201\200\207\276\332\233!\276\307U}\300\307\324\241\276iD\007@\3628V\276\304x\233\300\371\352\211\277\204\003>@\273\036x?4F\017\300\232\026\202\275u8\361?V\367}\277\3664\205\277n^\027\300\330\226j>\205\244\222\276:\355t\300(=\226\277>+J\277\000(x>b\206\022?\277tG\277D\242\343?}\304\315?\010=\227\277_Q#\276QLp\277?\303\376>a\220.\300s\220\261\274\276:\336<\222\3311\276\224\227\031\275\2671\005\276\305\025L@\222y9@\'g:\300V\346\230\277\262\355\010\300\366KH\277X\037z=\207\312*@)47?\354RS\300{\336Z\276\213V\316\277\000\362\323=k=\204\277\017\035\317\275.\330\334\277u\r\254\276\317M\030\276-c\307\277\202\274\345>B\300\341?/zg\300\367\031&\277\274\001\203\277\213\366\377\277\356\334\254\275\375\344$\277\303\374!@\262\n\302\277\253\225H\300%\312f?\376\363C@ZqD\277\264\216\010\300M\220h\277\014\361i\276ar\350\277Jq\340\275%\004\222\276\217C\255\277\202\326+\275\357\206\300>\302\303\035@\262l\266\276]W\032@\330L\017\277\270\322j\276x7)\276\261*U\300^\354\025@P\037\372?c\233\216\277d\0022\300\350\021\032\276\2606\013\2772z\371\276G\205\021\300\020*\327\277\323\212+@7\264\300\300\034\236Z\276\"\334\026\300O4\321\277\037Mx?7\266\r\300O\010V?\013E\247\277\233\230i\277x1\003\276\376\327\372?En\225\276\274\025\205\277\032Q\251\277\0373\014\2770\331\000>\033-0\300R\036\217\275\342\256\024\277\013\276\035\300\330\373g?c$\217\277|\255g\276y\030\341\277\363\366\323>L\022!\300Ge\206>P\252\232?\365G\356?\301|\210\276\372H\260?1\317Z=a\377\025@C1\030?\264\023p\276(\336O\276\322m&\275\027\000w?\327\226c\300\254\235\033\300\200[\027@\017n\200\277pK(\300`\021\352\277\016d\276\276\317(+@Jz`\300\037ql\2777\261\300\277l\257E@\315\014\261\277\207[\235\277F\336n>s\342\003@\357\335\304\276\203\315\005@\224\256\240=S\030\331?I\013&@\177/\035\300\202!m?b\246k\277\233f6\300\004\220$@\034d\206\277\377&5@\271\006\343\275\212\200S?\023\303=\300\212\275\336;\222\212\025\277\276\0362\276\272I9\300\360/(\300!\337\340\276\221\301\324\276\202\217\201\277y0\335\276t\201\212\275Q\226J@d\300\r\300\267\017)@\363(\311\277\246A\037\276\240\2738@# \030\300x\346F\300]\310\035\275\326u^\276C\002#\277\017n\275<\325h\313>\3224\251\276M\0213@\\,\251\277\3740\331\277\367\\\222\275:\365\214?\313\256\033\300\323\206\315\275\006^4\276\343\247D?\227Qa\277\237\300\267?0\253\'\277\276w\300\277m\362\035\277\272lG@WoW>4\341\002@-\307\"@\334\035\231\276\256|\236<\341jD@F\300b>\206\363 \277N\234M\277\0278\001\300\227\305\013\276%\023\025\277q\256\224\277\230\270\022\277K\301\241\275[e~\275\303 \017\3008\311\257\277-u\013@\361\013-\276]2\363\276\350\033J\276\rA\020\300\245\251\003\300Or0\300*1h\3001\240\"\300\353\016\263\277\2649N\300\020\t*\277>\3722@\360\304O\275\242\332\355\277N\230h>\364\324\236\277\007\tA\276EIo\277G\223\245\300,\215\307\277\244\211X\300]\376`@\250\331\333\276j\262O@\344y\346\277"
      }
    }
  }
}
node {
  name: "MobilenetV2/expanded_conv_15/depthwise/BatchNorm/gamma"
  op: "Const"
  attr {
    key: "dtype"
    value {
      type: DT_FLOAT
    }
  }
  attr {
    key: "value"
    value {
      tensor {
        dtype: DT_FLOAT
        tensor_shape {
          dim {
            size: 336
          }
        }
        tensor_content: "\'\317\036?\343L\262>V\235\024?\252\227\301>\223_\247?\230\004K?\331 \014?F\357f?\224\262\325>\226\3542?\3327\233?\2563L?gT\352>\027G\306?E$=?R\034\220?O~\322?Ka\031?\346\305\336?\346\361W?s\217\230?\335\330\005?\272\333\247?Ta:?\230[\254?\331\350\020?\227\310\317?\301\n\255?\316\030\007?\225\013v?`\2176?\331X\314?\352\253\334>X\236\014?\331O\235?\237p\202?\035\220I?\033B4?J\t\336?b\241\234?\036\002h?\201pv?\372%\002?\372\251\261?\2605e?\334s\341>O\214\232>&\3511?I|\005?\347\'\245?B\201\227?\237#\302?E\240\357>\007\r\002?\245\277W?$\201\037?\205s#?\225\311;?\336\223\235>\335\257#?-\347\274?\346\2031?4\334\215?\302\253\257?Pj\001?R&\242?\307\253\005?\270\361=?\326g\347>\216\rz?\370_\273?^\202%?\357\233\241?\235\302|?\361\030\360>\372c\r?)\245r?\277\n\342?\227,\204?\025\211,?h\"2?8\342\263?\345\030~>\026t\006@\327\371\203?\256\026\214?\266\251+@9\320]?\355\302z?\206B\006?>\250p?\256\253\242?\004#\206?\257\353\022?\327\237U?i\303\370?\236\231\217?/gJ?z\304\366>\031\250\311?v\324{?\207\037\354>\331\242\t?\3544/?\036\r\232?\027\274\007?a\337\214?e\2052@D\331O?\007O\203?\233\307!?\343\250\227>\240-\303?\300\025\346>\323\201\311>\0043m?\315%G?\206\000\216?Ns ?\360\331\225?\234\340m?!u\201?\254Bp?Oi0?4\016U?\250\265\033?\332\215\254>\220\364\344?\020\006}?\255\356\326?`\230\231?\027\300\307>\217\003\375>\213\227\032?\213\201\324?\225bn?\320!\275?.\305J??\326\327?<\353\r?\216\350\331?\207nq?\"p\245>F\322{?\320[\353>\036J\n?Q\033\266?^Tk?\255_]?\352G\010@o\217L?\230$)?4\3034?\331\242\225?\t\371\223?\254x\360>8l!?<N\207?\311\301\300?R\253-?\200w\220?\336\037L?\215\314n?\200\337\001?\014;[?\227\343\314>\031\3576?\266\0213?\337\014\227?q\362\370>\307\204\030?\223\346q?4\363\005?`\274\263?lG\341>Z\260\000?\013JE?\\\252\032@\310\260\235?\240\336\220?\265\246\236?\302|\003@\305\334Q?\213y\334>\033a?@\232\214t?\t\360\220?#\205^?i\2773?r-c?\310g\021?\000\r\360?\260$q?\320Yh?\356%\256>\300\347\364>NU\246?\322%<?\324\301(?\354\322\210?\213\033\223?\213\377.?\3315 ?m0S?\340\2445?\270\200\214?H\276\243?\2030~?\020\337\376>:\'\217?~`7?\243g\002?\231\t\264>\235\353\205?\302\355F?\255\037(?\233v\330>W\316\034?,\2000?\264\302\233?Q\227\201?\306@\317>s\r\221?\243\253\305?\005b\037?\\\224\345?\263;\212?\305\245\010@$\307M?\206\254\343>\r\320\362?\245\205\231?\203\032\206?\022b\312>\373\344\360>\321W\213?\031\310\024?\013a\014?\267B\220?\004r\014?\2663\205?\202?\331>h]\240>9b\213?2\324\302>)@\210?\307~`?W\334\010?\263q\275?8U\024?r\360;?\306\326J?\334\370\324?\330\264;?w\232\216?\274\347a?:\223\225?\3449\277?\034\234{?\252aB?\r\007\025?\314<\036?\256L\230?\033,\r?\245\253\255?\232\337\331>\274\374\255?Afy?C\246#?$3\001@1\316\376?*\266\033?\255\017\254?\231&\224?\033A\325>\230\324\271>h\205\202?\334\261\006?\337\256l?\372\234\273?\212aH?\373g$?+\371p?8G\003?\207\252\226?T\220\323>\226\353\226?L\275\r?\314\355\022?\006\346t?\034OP?\231\345\034?\344\027\351>\353b\343>\326\2062?O\376\231?\243\026_?\227\203\377>\373tg?e\\\025?\343\'\242?\302\372\272?l=\222?&\251S?\3220V?\321\302\233?\275\242\211?\310\273;?f\024\227?\232G\227?0\216\375>\374\032w?\352\037m?\t\211U?>\\\215?^&\265?\274\355\323?;J\336?\326\\U?\3730\t@\220q\234?\272\220G?i\215\020?o5d?\352v\234?\312\366\024?\335\030\373?ePu?^-\225?0\301;@\265\370\236?\0211\262?K\245\364>\3105\243?L>\211>+\346\261?"
      }
    }
  }
}
node {
  name: "MobilenetV2/expanded_conv_15/depthwise/depthwise_weights"
  op: "Const"
  attr {
    key: "dtype"
    value {
      type: DT_FLOAT
    }
  }
  attr {
    key: "value"
    value {
      tensor {
        dtype: DT_FLOAT
        tensor_shape {
          dim {
            size: 3
          }
          dim {
            size: 3
          }
          dim {
            size: 336
          }
          dim {
            size: 1
          }
        }
        tensor_content: "~\334\177?\230\252\240>tw\237>\312\253\002?\234< >\254\300\301=\232\216\024\275\217b\311>>B\220?1\376\222?\226\372\t?\245\310\357\275\314O\242?H\365\000?\372\274H>z\264\016\277\300\243\275>\222\323<\277O\203\215?\250\252\216\277\3018G=\251g\273\275\000\366&?\321\365\007?t2c\276qr\265\276BVV?\335\343\231\275\254/\235\277\240\"\007?\225\025\227?E&\313>N\316\250=\\\330\"?\261\325\017?\026\014\234>\215*-\277^A\254>+YC?C\370\251\276\"kx>\367\r\252=+\252\272?\375\335\t\277\255\017\032\277\020\035U?\247\001r?\003PZ>H?\205>-\245\226\276\257?Q=\007\036 \277\ni\t\277n \213\276F\363\212\272\276m\213>\3413<>\207\245\235\276cFt\276\271x`>\325\315\353\276u]$?I\332\346>\317\351\033\275\316\237\271=\215K\224?\'\027\372>\257\304\026>\322=\204\276\367;9?7(n\276\020`\020\277\314f\337>\013\350*\274P\021\214\276\202{:?\245\204\266?j!y\275#\226\374>\343\222)>\303V\242?b\366->\240\375\375\276\225a\003\277\367\337\035?>\276\302=8\202\016?\232R\232\275V\3315\277\nI\227>t%o?\363\016[?\373\254\310>\352j\364>\251\224z?\007(c>0\253\306>*\001\206?\322~w\277\305b\214<\274\366\231?\311\t\204\276\3703\016?v\001\363\274\375\355\255\276Q\200\023\277\007\311\306\275/Fj\276s\363\261>\317\244\217>\r\356\302\275\034\220\250\276\333\366w\2771]\005>)\017X\277|+G>\346\213\201?C\032\013>\247\265x\277\t\334\232?\265\367j?\306\340J?\332\000\332\275\017c\345\276\307/\221\277,_\322>\357\021U>\234\323P:\016\r5?k\013\245\275\374\t1\277\036 \215?J\275\005\277\001\231\210?@\017\241?\t\027\004\2772\332\212=\024\032^?6@T\277\334\374\300\276X\357\244=I=\266?\223\366\231=\004\332\272>\027o\365\276\315\033;\276w\265Y\277\241\234\000\276\230\017M>S6:\2769=\213\277\250\323O?\220\002k?\267\272\354=$\013k>i\230\334\277\024\025\230?v\334\215=\301\335\030>\030\306\006>\253?\241=\t\357\376\274\340\371\302?\370+\347>\243\322\022?\327P\370>\212\362\364\276\230 \024\277,\234\361\274\320\226\'\276/\020\317>wg=?ul%?\t\3372?\017\243]\277\354\304\206?\342\201\316=\244\031T\277v8\203?\321\367$=\022\\g\276\325\267\307\276\205\240\262>\366\367\277\276\210%?>\367\324\366\276\354C\n>\216A[\275|\352\306\276\215\242b?p|\307\275\025\343z\275\252j~\276]x\331\276\255\326`?\231L(?P\034\001\277\353\017\230?\200\'\252>\353\210\266\2742\013\024?\n\205\270\2762\300\265>\256&\234\276\234\305\231?,`\231>\005\275u?\235\261\240=\017\361*\277\020i\371>\210\374\253<\002n{?\217*\327>D\323a\277\243\001\257?\351F\r\277F{_\277U]\221\277L\343e?\267\255\351>\"\305\315<\320h\020\277\337*\335>;7A=\025\230\232\276\r\301\001\276\315\2538>[S\226\276oNK>\245i\005?\0104\253>[\305\034?\265g\357>\313u\214\277\341\3232?\267g\212>d6j\277L\261p\276\363#B>N\215\003>\226@\347\275\006MI?f6,?\324\377\033?\241\177\321>\302k\211\275\307\033\t?p\324\312\277|<\315\276\361\323\030?\032\236\035\277%f\362<\204Z+?.\301\340\276\262bd\275\257\227\037\2770~*?\263~\305>\320\345\220>b\361\247>]\031m\277\354\303\032?\312\212\276?\352\021\026\276\335\325\022?T,\014?H\014\246\276\365R\307>\261\031,>\273\306\026\277\202\202\332\276\261\360??\200.\260?\370Q\'\277Br]?\333\026\t\277\364!\004\277\300z\253>1\244\306\276\005\222\261=\023\365 \277<63?\363\311\266=9W\312>\331\3706?R\360Q?\251! ?\375hY?\342\364\364>\327\357\200=\277\3339?&O\323\277\201x\217\275\267\254:?\216zd?\226m\201?1c\373?}Rm?\322y4\277\357 \325=\020@@?\350z\246>u\315\202?\344\3015?\355\306\014\277\277]R?\250\340\020?\373\031\"?r\t\024?\343\214\226\277\372\277O\277\3530R\277\335\233\014\277Z\223t<4\360k?G\370>\276\347\370\217>r{?>q\252\261>\020p\016\277 h\002?\017\260:>\204\226\320>\202\032\025?\007\204\267>\3268z?|\010\256?\331\315\331\276:\375\336>U\020\030?\004E\021>\372@\013>*hB?\325\035d\276%\253\374\276?\242\213\276\361\373\235?\036\206\312?\013?1?:%\002?\263!\214\277\020\017\333>\321Y\327>\3773\375>\375\024\026\277  \372>\313#\353\275\321~\376\276\364\243\017?\020\317\'?\375!\245\276\177\267q\277,\2302@\030\237\341?\202\365V>\3045U\277G\366V\277\312\021[\300\203b\005@4\215\025>\320\203v\277[\353q\277\371\270\\>\352?\030?.>\245\277\303\023m?\3653\">\365\373\222>\212\235$\277\\ap\277\277\246\322>\000\201\032\300L@K\277sk\376?\304\022\017?h\367\347\276\311\307w\277CJ\354\276p>\215>\267>\021\277\376;\"\276\217\260\267?\317\373\256?\026U*>\276\364\264\277Y\235\024\277\226\025b\277\274\334%\277\253\251\223\277\211\225\326?Y<0\277& \203?\255C\225\276j\230\001\300\321\035\301\276\314\026\257>\206\266\\\277\352\177\270=b\354\334>u\0138\275[\223\200\276Jx\r\275\237\223\326\276\352\252\370>\263$\254?mA6\276\352\327\223>\335\333>\277<L\364\277m\031\324>-k@?\321\2422?\254+H\276\302\371N\274\366z\261\276\355vZ?\037n\364=\025\245^\275B\331\326\276\3154\t\277\322X3\276\246\211\316\276\306\342\350>\t\254\240\274\341E\350\276\201\231\260\277\010\205\252\276\346\273\311\275-\277a\276r\233\252\277n\032\006?\252\350H>\270\367\330>\316i\252>|\232\326\277\220p\314>#-\257\276X\'\257\276<\277\250?\355\354\273\277\213\310\216\277\371\321\330\276\0377\333\276\271\233Y\2771\307\301?\356#\277\277y\351\336\275l\311\224\275i\004\026\277\315E5>=1\226\276\253\270\257>\365\002\017\277\370Am>\303\271\036\300\'_\355>\201Gf\273w\224\307?HR\351\276\2046d\277\362)\024\273\2445\233>\266\256\327?\023\213\337\275\371M\005@c3\242\276=\013\335?s\266\205?\255\303\305\277\347\271\026?{\331.>U\310,\2777\325\001>\231\006\212\276Sd%\277\222\310\342=\343\314\014\277\3058>\277\210V\201\276\nL\203?\357\342\266\276!\002\036\277WG\265\276\271)\215>}\3179?\353O1@\203i\202=\276\224\316>\231\264a>\340\366\342<\311\270\002?\222@\262\277\362})\277\no\001>\302\372\222<\365v\301>\211C\205>C\373l?\370\223\267\276\307@\010?\3558\216>\030\1771>1!\247>yd\240?\305:a\277\206\354\233?U\325\316>\203\177\232\276\334v\205?\246&-?\364\n\212\277s\037\001@\3166\'\276T\354f\276\010V\021\277\225$\032\277\024\355\261\276\013\010o\277\245\331G?\020\202\004\277H\201!>\347\330\200\276\220\341<?\006\266K\277\224\247\350=N\3108?\274\234W?\200r\234\276o\313a\277\330W\251\276\301\221\272?\227\365\364>%\264\003\277-\322.?|\217\377>pN-\275\300\342\316>{\014W\276\266\336\216?j\262\016\276X\335h>\344\207\357>\3041\371\276\0377\026<\353\365\343\277]\010\277?\313\\\270;\301n\224>5\013\214\274i\326\001\277\320\254\206\275Jn\316\276\'9\214\277;\350~\277\334\262~?vX\004\277\373L\257\277&\211\233\276\366 D\276 i#@\253\021\t\277\244\3429\277\353\270:?\241\202\376\276JW\037\277\214\177\'=4\246Y?\235y\227\276aw\336>*^\202\277\230j\303?.\263\341>W\221\251>t\237:\277\030\3224@\177\213\320?A\301j\277\335\236\017@\234c\221?k\322\366\276tF\016@\341i9>\013t\330>.)\'\277\310\315J\277$\350\216<\220Q\220\276/R\201\275m\305\303?\244\246\254\276\214\225\035\277`\332\367\276\340\330\361>z\353\270>g)v\277\323H\333>\022\3425?\035\347\033?rk8\276m\007c?\253\"0\277\361\2663\277\227KJ\277\236\301\225\275yX\035>\211\253;\276\023qi\277\207\305\035?\3408O\277\210#T\2770x\013@`C\375\276vz_\277\37165?B\337\332\276\233\304-\276\274\030\245\276l\276\260?q\255\031@V\343\365\276\265\201^\276\266\240\330?\342\305\006@`\300P?P\250\261?*Q\227?\216\376\375?-\263\016\276\303\000\013?V<\204\275\201+\036?\213\005\365\276\242\230\232\276\307j\252?\251L\345\276\023\275>=\350\331#\277\t0\260\275<\311\334\276+\316\004?.\211\320>U.\300?\336\266\020>Q\273\347?\374N\213>\227#^>\220\375\351\276\367%\220\276bd\260\277\257\303\276<\014\244\334>\033\274\024?\234AT=\030\266\364?\314\030\347?\302\020\207\277\033J\031?O\236\035>\355\227\017@N\337G?\007\261\255>\3675\237>\033\267_\277\367#\363\2765\323\n@\2364\217>\330\245\210\2753\302\260>!\243V?\350\360,>\272o\026\277\rQ:\276*\260y?\335Qs>7\323\203>\246\313\336>\363\223Z>SK\254=\014\317s<\325g\343>G\236\212?@\347\215?\0029\247\276C\352\312?>\027\233?\"\366\362>hAM>p\003\237?\223\013\213>$\030H\277z\"\216?Or\222\277I\212\010?\335\330I=\0229\036?Pf\007?C\311\227\276X\223\233\2762^Q?\205\366\305\275:\374\217\277\306\362\350>\033\355\241?\246\361\325>\232\340\034>.@,?\014\201!?|\r\241>\262*9\277RN{>\027\'\034?\203\n\246\276\242\324<\277V\342\303\275\332R\257?x\372\365\276\354\"\'\277n\247+?\222\020B?\357\n\026>X\336\207>\257f~?\265=<;a.\023\277\3774\306\276\241)\221\276\261\"J\276\261\322_>\372\203\010>\260J\372\275\333[b\276\\&\337=\030\327\277?\231\353\027?&x\334>`=\256\275G\306\n?;\177\214\277\350\317\337=P/\">\325\347\245\276\220\036T\2770\375)\276r\344\013\277\243\262\374>\247\032(=\253\360\254\276\307\3336?n\276!>D\204\305\274\3713\215\276\2423\326=?\270\314\2768,%>@@\007\277#\222\n\277_\0252\277\332^\305\274\014\036\016?\304\350\205\274\246\376\205?\027\257\262>\303\000\n\277\232\247\214\276XA\227\276\207;\324>=\201a?+\366;>@\374\250>,N\213?A\273[\277\261\255\340=\017\264[\277\264Kc\276\343\020\333>n\270\354\273\265\235$\275K1!\277\207\302\005\276\340\236\261\276<\215\203>\200\240\230>\314\247\326\275N\002\232\276#\275\212\277\022\007\240=\256KR\277\225+\322>\277\302}\277;\242\002>\352dU\277\r\254\230?\317\210s\277\361\350??\274\241\335>0\225\232\276\362N\241?aY\366>\264\005\016>\202\363\032<\221\263 ?\264J\354\273wj\227\277\300\230l?\216f\356\276\270\304|?\227!\210\277\372\354{?g\344\331=\224\216\343\276$$C\277\356G\266\276F\326\037<\245\007R\277<\344X\273}\303\234>\305\025\324\2769\253\250\276\367\200B\277\032\330$>b\224\030>\223\367\214\276\210\302\226?\267\337D?\2105z?\255\251\367=\003\273\224>`b\311\277\312\321\232?zc\006>\t@H>jfP=\334\027\305<\237\022\013\273\363F\206\277\0344\324>?S\r?3~\340>\306\216\360\276\354\236&\277\335\211??t\215\211\276\247\001\236>\224\373\n\277\003L\037?\217\001 ?y[G\277\007\275y?\236\220\271?\314YR\277\335\376\003\277\221\235\373<i^}\276\364\215\274\276\246\026\245>DO\347\276\361\332e>\322j\036?\034\317\201=\331\024\035>(^\234??\276T>PKY\276mR\023\276\014\317-\276|\262\320\276Qc`?\204y ?\274\r\003\277@\371\215?[0\272>6R\225\274\211\256\035?\373\265\233\276%\257j>\213\014\202\276\224\300\227?\330\377\240>\007\347\025\277x\215\317\272\332\277\021\277\211q\300>\226\305g<\350\217n?\320\364\275>\245\004A\277\312b\264?\001\232\356\276Y\230]\277(O\222\277\363\313W?z\327m\275\\\355\210=\353\303\000\277\312\016\346>\253=&\275\274h\324\276\216\272\005\276Ic\001>R-K\276\244yK>\203\345\354>\262]\273>yD\345\276\362W\372>T\361g\277\355\276\001?\021\227\\>\262\303\024\274\002I\026\276T\224\026>\345\227\"\274\273n3\276,\n<?\242\223\032?5@;?\206\242\226>\204CR\2761\316\033?\304\301\305\277\213E\314\276yt+?\226\365\023\277`\260\347\275\217\035\026?\3251\306\276o\212R\273M@t?\362\316\026?\003*\312>\327y\204>.\235\267>\t\367y\277cI\013?\201\230\270\277UC\235\276]_\340\276\312f\006?\031\246\370>%L\336\276\271\270\354?)P\024\277\034Q\301\276\37562?1j/\277\310X\201?\204\231>?\231\256\305\276U\356\036>m;\240>\333\352h?!6\373\276wo(\277\200^\373>\205V\213=\331k\303>V\350\n\277\277!S?[\026\025?B\334V?\236\206\345>\213u?\275<U%?\330\335\005\276\036]\'\276\212\342O?\\\n^?$\227\r\277C\256\207\2764\004K?zg6\277\014\267\231>\370,\333\276\006\036\242>\034y(\277\022\250\037?\312y\013\277^FX?\370 2\277\233\335\'?\246\034\014?\313\333\003>\334\262\035\277\327\0370\277\000\003\013\277c\260\034<6\344\'?t\266{\276\001$\221>\033(%>4\010\234>\207\013\303?q\242\002?X\021%>0\322\236>\264\243\n?\271\207\232>\377\246u?\310\232\375\276\253\355\306\276\244\023\303>J\347\013?\003\2176>$,H>\366-T?\327b(\276\242E\364\276\013\2755\273\326\377\276<\253=\253\276\001\r\r?h\316\222?\000ak\277\256\325\255>X\024\034\300\275\036\010?n\335\267\276\230%\026\275-\017\357?\307|\321\276\346Z7?0f\363=&4\327=\332\346\033\27707\230\276\202\303\240\2778r\300\275`\"\244\276\n\215\224\277\001\035\242=\302\223\276<r\376\335>\223~\200\277\271\256\023\275\216)\233>\226\344d?]\010#\276v:\003?\336\214\010?E\013\215?\032:\026?6\216u?\r1\316>Y3\033?\313\352\347\276\324Q\300=\234\366\373>C\343\022\276A8\266?8]\007\277L\362\023>\212\3178>\365\023\220\276t\217\007?i\376\332=\365\311\216>3R\270=\336\244t\2768\213\375\276\206.\357\276\316b\331>\374\242\022\277\236+\273?\000b\361>\334\347\371>y\313\001?\362h\374>\277\207a>\341\321A\277^\323.?\231\365\026?\216(%\276+\275\334\277\266\265\360>@\332\000@jL\365>G,o>qo\270?\'=\266>\223z\257\277\326\3152?\204\220\240>3\200=\277K\320\224><P\216?.\245f>\302\025\365?X\317\031=\333Q4@\341>\206>\367\356o\277\023\302\024\277%\317\337?[B\t@K\304,=\2620\310>k\366\223\277\260\262\374>8l\212?P\256\235?\002;\377?\212\346\023@\227\333\212>(\344\240>\004\216\314>n\314\226>$\233I\276\32470?\037\267s?\3577\204\275\331\237\211?[\263\302>k\213\367>\271\377;\276\3256\353\276\311Dk\277\r;\222=\346y8?\231\256\231\276|\330\r?\'\226\274\276\356\272\333>K\325\242\276\354\253\315?\'D\202?\257W)>\356`(\277\200z\244>\324\305X?\342\022\307\275\216\007\221\277\355\244\206?\007\025\032\277e\276,\276\311\341v\275\363b\240\275\2324k\276$\320\341\276\211\316\253\2723\327\212\276E\3020\276\200\204\202\276\247UF\277\351\357\214\277\030\207<>\273\236\240?=\362\371\276\277\265\016?\227\226J\276\3533\215?bY\345><\200u>\336\353\336\276\215\310e>QK\016\276\300\351\301\277\335\210\032?D\260M\277\373\217\277\277\367!\342\275\357(\217>O\332\017>\027?)>\224\244\345\275\013\323\254=)\260->x\217m>\333ZU>\342J\272\276\016m=?73\275?\303n\013?\330\026s>\n]\357>\021j\014\277\333\023%\277\333\241\221\277U~\r\300\026o\361>\366R\336?\343\214\\?\013d\373>\307\355C>\272\316\027\276\253h$\277\360|6@\177\306\325?\214\n\000\277\262H\237\276\376_E\277A\003L>\231W\242\276\2106\233>\017~\323\277\221\350\022?B\025\225=\272\\\244\277U\373\307?\264G\373\276\354\365*\277/\255\037?B\217\000\277\353\013=?^\223\003?{\2219\277vf\356>8?\265>\276\255\036=MK\016?\340:\356\276\366\357\246>\277\'\232>\274\333h\276@\325\001?\200c\000@u\251\217>\343\024x>\212N\300=\334\270P=\260c}>\257\031\255>\377\302\177\277\245e\236>p?\326\276{\253\024\277\236\032\234\276\020g\n?\224\204\010@\256\372\303\276\347\323\231\276\320\330\010?\205\307\325<\307\373\240\276\036w?\276\\(L?\030\272\232\276VH\271\276z\350\323>\223\204\201\275\333\205\312?\265>F>\253\300\376\276\243\355\244>\326\rJ=M\202\022\300R\330\375>\362\352\267\276\301\246r?\246\315\031\277\374`\001\277\224\357\013\277\374N\322>=\354\310\274f\307C?o*\371>[\363\210?\245\032\027\277\364L\242>LJ\362\276\227c\244\277\227\253\251=-\256\320\276N\246\347\274f\334\246\277\324D)?\203\232\230>$d\254=\307\267\273>\304\344R?\310\271\361\273^\241\302?\037y\302\275a\202\375?\362\374\324>|^%\277Q\316\027@\222\026 \276\rK\246\276PR\215\277z\356\026>\021\317\316?f\026L\277\020\021\257>\361\003\224\276\002\374\302\2771\016\336>M\3277\277\262\034\023@\034}X\276A\267\177\2762\244\215>6\200c?\3163\307?G\220+<\274\227\207>\347\033\351>\272\217\037?g\322m>\343\n\036?V\252\206\277\036n\313>\360D\235>\213L\024?-\312\316?\307/\204?|\315+?\'\014\311\276\250\336\220\275v\250\327?\013\177\252<\245\374\330?Z\006\344>\336\001\025>r\257\032\277\277\272\310?\355\324\217\276\317V\255>\335\036L>cJ\220\276w\264\367\276\324\225\245\276S\263\031=\3570C?\\\303\317>_\326\036>\355o\323>\335y\262>\332\201\323=b\242\326>\332\313\257>\0271|=\' 5?D{\376>\206\375#?<\201\250?k\023\251\276\237&\245\276\007J\344>@\360\236<\257\034\007?T\025\223=7\303\233>\240\004\346\2763\023\270\276\315w\300\277\254\310\257?v\220\202?H\332m\275\252\210#\277\323\\\303?u\020\r@0\370\321?vfW\300\272\220V\300]\226\321\276\016\030I\277~8\245\276\024\246\235?U\230\004@\243]s\277\0135\007?\333g\253?\263h\036\300nT\034@B0(\277\200\365)@\016\312\013\275\021\352\240?R\246~=T\373\325\277\332\277X=\326^\235?l\314\273?#m\220?\360\215\261\300\034\252X?\224f\377\277\264\"?\300\267\265\206?@\262g\277\311Dk?\036\234\337\276F\332\024\276\353\234\252\277\227\255H?\371\204\311\277?\256\214\300\375`\'\277\322\373\247>O9\305\277\032\014\"?|\334\303?#(\210\277\022U\'\276\t\227\252\277\326\240\325\275;N\267\277\305\026\325\2770\267\260\277$\350\277>H\266\271?x\210\314>\013\305\023\277n\026\310?E\256A\276\227\267\241?OT\261?e\'\314\277\342\211f?y(7>}\316\036?\274\346\332?\366\277\376?\235\033\'\277\345Y&@e<\037@\\\244&?\270x\264?~\311\035@v\201R?\233\234B\2771\002\006\277\376\261k\277)\322\204?YN\201\275,\335\005@\322\021\026>i?\360\276q\236@\277\322!I\277{\256\247?\305\342\224\276\340\311\375\276\036\227\024?\"\236\207=\000\363c>]\375\325\276\357\340\271\277\250\326\227\277\233y\003@\361J\014@D\220\224\300ET\330?\022\235\350?\221\032\331<\005\351\204@\250\235P?fOu>\014\236i\276|\362\231\276 \361\237\277\215\022\203\277\0360\315?t\346\222\277Y\243\267\277txX\277\303e\374\276jg\001\3007 \345>\213p\347>E\007\201\277\226\244\r@r\252\340?\234$?\300\277\255\003?SD\205>^H\001\277\316\205\325\277\317\347\\\277k\010\224\300\303\255\002\300\034\352n@1\340U=b\224\301\277\256\3039>\300\3317?OU*@\354uH\300\343\237\241?D\302\207\2767\320\345?\240\216a?5\252(\276eP$?h\007\340\277M\220B\277\313\310\024@}\264}?n\274\n\277\373b\330\277\357\266\310?\213t8?Eu\267?\310.\346\275\210\365<=\2441\263?\231S\205\300A\337\n@\022i\305?\316\030\304?\312\303\211\300\270\'\032@\260\321\000@\304\232\342?\250i\002@\311s_?\314\333c\277\206t\232?\277c\220?\021\306~?\377[\005?\033\310:@\021b\321\276\236\271\n@\237P\252?\356\276Q\277\253\350\366\276\'\317\236?\311\216H\277\271\031\361\277\245-\205\277\007\3044\277\325\225\017\277}\301\207\277\362\302\010\300#\312\032\277\246p\261?tZ\227\277j\345\030@V4\027\277\336\347~?(A\224?\346tW\275H\235\357<v\'A@N%3\277\006\337\\\277\316\354\206\276x\365\300\277\025h3?\362d#\277\230cD\300\r\317\207?\263\345\257:n\n\321>B\263\275\277c5\345?\006\200\236?\346\222z\300\370\256\246?\034\016\217\277\374\227\347>+\'\024@\212N\214?&\030\323=\353\260\205\300y\327=\300\t\001\"?\251\025\301\300\321\031\252>\3363:?^\246\n@\355w\357\277\261Z4\277\312.\'\277\023\237q\276\032\343\325?R\035[?\003\253\201@\217~\245\2772\247\201?\306)\357\277\255\263\266\277\037\253q\300\214\320\013@\332\202k\277\002\"\265?\236\266\305\274\327\003??\245\327\302?\344\"+?\242\301\244\2771\031\033\276\017\362\023\300\247\326p\277\036O\203\276\376\032\352\277\251\221\211?\344\361U\277\001\002\310?L\200\243?o\327\022@\337\367\006\277\351Y|\300\027X\005\277\365\r)@]\212\213?\010\312\256\276\233\247\235\277\332\341L\276w\246\242?pi\341?\\\210\347?\"\237\010@\261\317\013@c\334\232?\265y\007=\352$$@\264\213Q\277z\234\030\300\345\310\031\277*\317\224\2777\027\226\300\317\371\317\276\253\267\340>!\325\025\274\331\266F\277\235\177\373\276\010|\255\277\037\205X\276\270\235\265?\322^j\300\037\250\013\275\214fT\277\370\326=\277\363\223\306?S\373\201=G\307.\276\263\301@\275\344\201\263\275\336\227\272\276\r\002z\300S\003\223<9\254\216?\003\217(\277<\232\224@\333\310\013@\335\311d\300\332Z\243\300\224\273:\277[P\205\277\212\357{\277\026\356G=:\246V?.=\177\275\223\310>@\201\2205\277\305\037x?BG\030@\373\223\030\276U\374Q\276y\256l\277\362\005\252?\231\300s>\237\001|@){\r>e\226\203?\006\237\003=\313W\241\277\226\'\324?\261B\022@\036\013\002?\316p\r?\316\273\324\277\240Jr?\212\366\330?\002~ \300\231\231\022\3006\021\365? \2077?\211\314\340\277\022\035E\277\340b]\275\005\364v>a\005\017@\224\260\301??Dl\300\335H\023<\345\007W?\242\344\313\276\213\266\226\275\035\020\221\276\255\363\334>\0144\237?\3115w\277\363\264\250>\\\272)\300\343b\245>\226\332\235\275\016g\223=w\376\252\277\253TW?\303\246\343>\356\221\324=\310~U\275\256\257\363?\305\341\205\276\253\036\231\277\020\001\214\274\210\265\266\276\rs\002@\306#Z=JJ\010>H\312\303>W\023z\277\241H\010=\335\231\201>\343\326e?\352YO\276\002\322\000?1\007\006?\225\306p?\312\221\036?[B\222?\353\244\266>\343\301&?6=\307\276.\257\253=\nf\317>\315j\204=\036\346\346\277g \356\276\312\254$>\237xC>cF\210\276\000\257\004?G\320\202=\351\247{>3\337h=nn\242?E\257\211\276\203\263\337\276\325\266\263> \3254\277\271d\235?\253T\316>\330]\371>\006\357\354>~\377\n?\177\000\272>M\317\023?\314S\'?~k\002?+\317\307\275\255\267\000@8wL\277%T\217\277G\235\361>\310\245\035>\253J\337\276Y\340\301>\213@\243\277\360\005\037?\0269\217>NIn\277\246\2222> \222)\277zIp>\0230_\277\274|\026\275S\217\321\277\242+\332=\300\034k\277\367Z\005\277\353\030h\277:\302\227\277\217\231\273<X\000\017\277TE\323?\377\205\351>\276\032\242\277\2726W\277&\213\310\277\032C\024@<\220\335>\001;\204>\334(\241>\\\003j>\034\334\340\276\240\371,?\333\237m\277\212\361\232\276\325\340H?Ja\271>+\236\331>\326\271\\\276\212\364\002\277\305ua\277\352|G=r\343]?\267R\201\276J\272\036?\302\303\366\276\355%\034?\253fG\276z\347\223\277\306\n0\2771\253\315=\031MN\2777\272\330>X`\254\277\304c\365\275\320A\026@\032\363}?\010\253\217?I\254J>S\315\300\273\371x\342\275$GP\276O\327\376\276\332v\022?TU\000\277\375\262\242\276l\004\345\275(LV>\317~\266?\305\255E>\024=\366\277\332\315\364\276\022\016:?.6(\276n\0317\275\252+\263>\357\207\212>\215\234\302\276\374U\301>3\013m\276\037=\262?\303\350\322>\244\037<\277\nX\216?\375\352\234\276\341C\311>\010\245\004>\256q > \224?\276L\2377>:\315\272=;\315\322=\2125\245=\250~\007\277\330\355\372>\303~\210\277_\236\312>ab5>r\232\311>\330;\373\276\001\0346\277\316\337\310?\221\373\007\300\244\301\312>\312\322k\277>}<?\230Z\351>&F6>/\036\222\276\271\223\214?\002\0069@\337\232\215\277\203\033\274\276\214\325\305\276\260\315/\277\274\344\017>c\260\274\276\325\200\211>\363\024\024@I\236\001?\241Z.<}z\031@\302\271\320\276\354M\373\276$P\017\277\336`!?\302N\375\276\242\324I?\376\364\317>\211\241>\277\'T\025?\244;\334>\252\2615=\312\204\370>\332\336\350\276L\226Q>i\ny>\306=\\\276Ql\330>\226\250\'\277\275V\204>\316\371=>\2013H=-\344\035=\003\214\355>\347c\272>\n\237\220\277\000\311\376>,1\003\277\342\230\036\277\365\360\276\276aV4?\341\333N\2773F\244\276\340\201\260\276c\312\361>\007o\341\274\305\022\352\276\032\350\r\276\217\236E?\201\037\230\276\267\025\306\276w\345\374>|\325(\276\246\013\002\277@R\253=q\210\021\2772\220\207>\3269\315\273\350\037F\276\225\203\353>\271C\252\276\006BX?sN\025\277\247\003\005\277\201\343\276\276\216B\201>i\307\214=\262H*?H\326\221>\230]\232?\235p\r\277\253z\t?%\030\276\276\2328\233\277\326\313*\274\005&\257\276\251\2235\275\213\365\231?\n{$?\232\021B>\357;\277= \373\033>M`1?\305RE\275\372\n\256\277\314q\362\275\311m\004\277=\360\367>xJ\365?\220 \254\277\'`\210?\306u\242\276\304r\225\277Bq.>\355\216#\277\003F\343?\253\220\013?\323\212\235\276g\366\034?\277\225-?\205E\262?\t\204p\276\204\022\324\275w\013z\276\023\247\200>\326\206b?\314U\276\277\213\200c\2759\375\206>wj\025?\267\266\010?\337\305*>-y%?B\3079>\002VZ>\263\214\307>\263\363\003?\033\211\206\277\377\365\300\276[oN?\335\255\267\276\306=\257?58L\277D\375\250=\277\362\224\277\210C\270>\014\341\020\276&\t\362\276\243:\266\277\254\276~\276\220\346\266>\004\256\023>\267h\367\276\315d\013\277\005\362\210\276g\265A=y\025c?\303r\244> \376\220=5Z\316>\212J\243>5\"\237?.\344\250>)=H>\362\262:>\361\224+?\002k\314>\367L\014?8\225\243<\307%\210\276#\\\217\276|e\314>\322\361\022\275\032\335\340>{~\n?(\222u>R\373\347\276\257\350\342?\021\265o\276\357x\201\276\262Lr> \326\225>\236j\004>s\254&=\376\377\356=\274r6>\235G\217?wt\313>\362\211I?\032\2363>\2120f\277D\304\240>\204;\002>9hJ\276\350\247\260\275\206\240q\277\3539\005=]_\236\277\373\226\"\276\203Ei>_\211\003\277\320\304\222>#\300\277\276\324+\246?*\2501?\036b\200\275\375) <\347?\267>\255\325\231??\351\214>}\326\215?\276\306}?S;\000?i:.>\304\213\274>)\222\263\274\017\204l?be ?a!\211>\213\362!\275d\255\217?!\344\213?\320R\363\276\302N\032\276\032\315\005\276b@\215>\000\366\267?\275\344\225\276\347\2606=mO+\277\362B>?_\313\211\276\317|\036>\354\214\377>AU\006>o_\214?\2439\366>\217\202\024>\272\376\237\276x8\263\276=\205\276=\304K\326\275\241\362i\276\240\321\257?b\336;?o\025\014>\304\003c=\220\265\372>\235\322_\275\\\347G\275\272\212,>\207\\.?\315\204\237\277@I2?1\344\301?\336||;-\277\254>\357\237z>;\326\241?\256\341\033>\317aC\276{\215\001\277B%\376>L\357\016?\361\241\375>v\275\023@\221C\240\276\374\341(?^\001\177?D\003\200?)\321\236>_\033\330>s\337\374\276\3421\t>\013An\275\257ks?M\272\223>\331\375x=\320\234\222?\253\254\321\276\262D#\277g,\224>\035\302\006?\340\027,\277\302x0\276c6\256\276)\344Y\274\021_\215>+\3764\276r9\211?\241\265-\277g:@?5AT?\233zl?\356\352\361>\3040\270=>\030\017?Cx\220?\237\377#?\372<\017\277\201\205\353=\236\\\021?\353:6\277F\365\241?\025r\351\272\t\223\205\275\353\205\315\276\001\266&=\203O!\276\223\374\210\277\256\264\202\276\325\202\334\274\222L>\277\245G\010\277<\2410>\006\003\225?}\013\274\276\205<-?w\274\301\276\210\311\204?\236f\246=\330W!?\265x\364\276\000r\n\274yf\332>\277\344\027\277\252{o>\006\332\212\276\326\010R\277\315\304\014?X][?\'\355\013>dT\315>\2205\200=\306k\331?\357\337\025>XLM>[\r^>\n\311\177\277\333 C>_\021\243?q\314\027?\307Q\000?Z\206\007>G\247(\277F\353\257\277\340\240@\276Rn\002\276a\304\341>9M\223?\010&\247>\r\013\276>sY\354?\251\322\305\275\352\304\335\276k\021\311\276cN\035?\366\314\001?\241l\274\276=\370\264\276?\360\377\2751\025\214?$\232X>\350\327\241=\2161\377>4\251\323>\311v\360\275\212B\221?\305\302\005\276WZ\227\276m\n\021?\357\320#\277!y7\277I\334\022?\232\330\227\276AX\375>\322\024\232>\210\206\327;|\356T=\006Nr?\377\017\315\274\305\317N>\030\346\234?;`s>\346\262\237>|Z\315>\352\3511?\343_+\277X\312\035<\017\010|?4N\t?\317mt\277\353!\320?\246\3724\277\027\2638?\214\036\305\276]n\266\276\325\253\346>\357\354\274\276\266\360\r\277\037\000q\276\"f\201=\376\030r\277\204\333\363\2750b\340\274\t\t\312\275\210\361\030\276{T\374>v{\"\276N\304l?\314\231;?\337yt?@gk\276\222\024\270>\353)\237\277M \002>kd\224\276\014\225&\276\"\355@?\224\375\332\274\256w\210>\247\336\303=gZ\211\276|\271\356\275\210\240\000=z,~\277\201Q\254\276\212\026\005?b\240\017\277\267c\251\274\277\225\332\275\322J\n\277\331J.>sJ\236\276P\317\235\276\343\017\262>fi\024?\372\010\270>\200\372\232\276\266\'\"?=\024\235?\010\2164\277e>\214?\205\326\263?\244\002\266\276\351d\037?6\263\312>\235\332\347\276\332\274\223?\031\353,\277\2051z?r\n\260\275\305\004\252>\017\271\213\276\020\371\207\277r\207\300>\262\306\021\277J\345t?\336\244\017\277\227=V\277\344\003\313\276\333h\202?,N\340>\245lL\276\376\206q\276\363\243<?\210>\310=\326\256\245>\205\267\260>\301\2732\2777\260\351\276\311G\233?\274\3608?.\r\374>w\357\271?\251\323\334\276\213\300\346\276}\037\234<;\204:?}\347\341>s\200B?\240*\022?d\215>\277\341\205Q\277V\341-?<xi\276mj\345>}\214O>T\356m\277K\252\373\276uQ ?\036V\345\274;\322\\?R\261\337>u6;>\2179\226\276\222\'\272\275\034\003\356=\022B\n?<\206M>\000\216 >\225\271\357\275[\214)>=p\220\277n\341\241\275<\270\010\277\207\367\350<\344gK?\375\364&>:J\031\275\360\225\215?$E\332>\371\205\267\276\014\264\235\276> x\276q\243X\274EpC?\306mF?\265z\225\277\203\026\331>\0270\217?\211\302]>\017\250\354>\311\332R\275\223\250\035\276\332\315B\276\212\314\360\276\305I\213=\2133\336>w\332\243\275\330B\033\277Tq!@^-G\277\361\232$\277\260\235\223\276\300Y\255>\261\304d\277\244:\327>\327\036L\277zl\241?\362}\323>!b\205?@\220\220?\337\376\254>\274w%?\306\016\320>\347\341\275>Lln?m+\036?\001\203\305\277*\256\010@\212\260\r=!\314\265>\232\317\002@C\220\275\276?\301\003\277h\003\302>&}\270?\354 \251\276\337\3335\277|\354\'\276\315\267>?\342\204\232?\365\375\272\276\370/Q\277\3553\212\27633\232?4\201:@>yP\277\266_\r\277\010\274\200?\207\265\326\276\035E\377?\303\207Y>9\220t\277\355\300\"?\000=\001?o\272V\276\214\250e\276\273#\240\275!e\202\275\031,\300>\022w\202\277\200\367R>&\337\266\276Hy@>\3020y?-\300\346>\334,\304\277W/K>=J\261\276 n\"@\250\335\234\276\206y\004\276\221\341\333;\302V\235=\004nG\275\317`~\276G@g\276\204\002\032\276\346O\346>\014t-\277\212\310)\277\'$F?\317\243\210\276I\361\273=\321\300\314\276K\014\364\277?\356\240\277@ri>|oY>\r0\232>\212=\252?\370\321\202>\314\301b\276\254~>\276\266\246\244\276\014h\017?rj\214?\276G\332\275\017E\304\276D\"}\2778\245\311\276\027\032\310\277_\333I\276z\004\263?-\345\263\276w$\213?\322\013\000@Q\243\364=\007\312\376>\244O\213>\223\342\326>@\225\231>\211-\003=O\351\343\277\252\322\"\277<>\221?M\240^\276U\305\021>\350\345\274\277\020\341\244\274W\014#\277\342:$\277\224Ma\277$L!\277\263\241\204?\231\242\010\276\2002\023\277\000\347#\277\337\206\375=\256\333\302\275\340\334i\276\336\271\244?> \245\276s\241\331\276\211\202\250>\305\336\203\276\223)x\276\333\271E@A;\275?\205\362p>\026Ge?\223A\030@Z\265\007<\357\303\306>\260\303\255>\370\004\020>\337k\034?1\230\270?^[?\277\031X\363>\254\252\032\276B,\216>\352k\277\2774\363\224>\273\372\022\276\373\344\177\277\220*\004?\277\310g?\215s\256\276\346\017\242\277M\202\235\276.\223\222?1\270\300>\022H\233\276\322\243\231\275\250\231\036?\363\205\225??\335\267\276\315\037\207\2765\034\373\2763\272\273\276Lz\001@X\017\330\276\265\235\215\277\260[o\276\324\037\316?\005Zw?\247\226\334\276t\272+?\263\211\355?(\013\333=O\321p?U\351\247\276Z\274\215\277\216\233\321?](\247\276G\367\033\277\217X\364>\307\2232\277+-\331\274L\000\365>\213\357\037=w9\243?1S\353?\373x2=\227\004N?9\245\363=\211`\006?z\234\263\273\343/\333?\357\340#>\242\342\212\276\221\237r=5:\026>\014\313\375>n\3123\277n\346l\276\272\303)\277;\322\351?\340\271a?\007\237\311\277vH\006\277\264\374\326\276\264\203\017\276\344\300R?Cv-=\376\365s\277\303\241\013\277\301S\224?>4a\277U\262\n\277$!p?\037\037\260>`\205\225\276\035\034\247=\'u\235?t0\037>-\206\t?\215B7?\261\3044@V\242\027\277\376\\\236\2778\270\005@\025.\304\277\032s\203\2773\213<?\355\000\003\277-z\375>\212\212\366>\356\r\343\276\371\245A\277\325\301\320>\335\244\370\276F\300@=\264\264\360\276\000<\222\276s\246*@l\006\274\275\375\0041?\251\313\004>\300\237\243?\203\354\263>\307c)?\261\300\245>\320*\000\276\323\266\321\277A\246\000\277\224M\024?\323\210\026\277\034\033\360\276I\'\337=\277r\212\276\024\333\256?\016\265\315<`\277,\277G\2157\277\233A\272\276\036N\336\276\352\205O\276\305\'\001>\314\266\006\276\352\332P\277\221\340\017\277\371\245\005\300H\342a\275\346\356{?\2731\227=\177\270n\277+\317.>\005t\022?BS\322?+\254\177?\304\206\341\276\234\314E\276\265\322\221\276Q\306\255>\277*\177=\002\244\252<\371u\232\276\305[\342\277C\"\341\276\3249R<K\367\t\277\367\220l>\226\265\n\276\252u4?n\177:\276B\331\033\277\013\315!\2759\033\362\276 7\004\276\230\341->\014I\274\276\367N\323\2769\272\227?\270D\r=\005\237C?Sb\000?u\302\312>\367\326\227=\250\020\250\277\344\344)>\"QB=\2777\212>\330\226\357\276\232P\326\276f\233\034?)\335\376\277k\262\216=\030\013\264\276\252\351w\277n6\020?\340\206\201>\236\335/?\337(\262\276\300\004,\300\204\221\356\276%\243K\277\221\267\204\276luV\276\374\311r>\036\264\221>g0W>\240m\240=\023\265t\275d-G>.\300\202?]\257\324>\323\236+\277( 